{
  "version": "1.0",
  "truncation": null,
  "padding": null,
  "added_tokens": [
    {
      "id": 0,
      "content": "[PAD]",
      "single_word": false,
      "lstrip": false,
      "rstrip": false,
      "normalized": false,
      "special": true
    },
    {
      "id": 1,
      "content": "[SOS]",
      "single_word": false,
      "lstrip": false,
      "rstrip": false,
      "normalized": false,
      "special": true
    },
    {
      "id": 2,
      "content": "[EOS]",
      "single_word": false,
      "lstrip": false,
      "rstrip": false,
      "normalized": false,
      "special": true
    },
    {
      "id": 3,
      "content": "[UNK]",
      "single_word": false,
      "lstrip": false,
      "rstrip": false,
      "normalized": false,
      "special": true
    }
  ],
  "normalizer": null,
  "pre_tokenizer": {
    "type": "ByteLevel",
    "add_prefix_space": false,
    "trim_offsets": true,
    "use_regex": true
  },
  "post_processor": null,
  "decoder": null,
  "model": {
    "type": "BPE",
    "dropout": null,
    "unk_token": "[UNK]",
    "continuing_subword_prefix": null,
    "end_of_word_suffix": null,
    "fuse_unk": false,
    "byte_fallback": false,
    "ignore_merges": false,
    "vocab": {
      "[PAD]": 0,
      "[SOS]": 1,
      "[EOS]": 2,
      "[UNK]": 3,
      "!": 4,
      "\"": 5,
      "#": 6,
      "$": 7,
      "%": 8,
      "&": 9,
      "'": 10,
      "(": 11,
      ")": 12,
      "*": 13,
      "+": 14,
      ",": 15,
      "-": 16,
      ".": 17,
      "/": 18,
      "0": 19,
      "1": 20,
      "2": 21,
      "3": 22,
      "4": 23,
      "5": 24,
      "6": 25,
      "7": 26,
      "8": 27,
      "9": 28,
      ":": 29,
      ";": 30,
      "<": 31,
      "=": 32,
      ">": 33,
      "?": 34,
      "@": 35,
      "[": 36,
      "\\": 37,
      "]": 38,
      "^": 39,
      "`": 40,
      "a": 41,
      "b": 42,
      "c": 43,
      "d": 44,
      "e": 45,
      "f": 46,
      "g": 47,
      "h": 48,
      "i": 49,
      "j": 50,
      "k": 51,
      "l": 52,
      "m": 53,
      "n": 54,
      "o": 55,
      "p": 56,
      "q": 57,
      "r": 58,
      "s": 59,
      "t": 60,
      "u": 61,
      "v": 62,
      "w": 63,
      "x": 64,
      "y": 65,
      "z": 66,
      "{": 67,
      "}": 68,
      "~": 69,
      "¡": 70,
      "¢": 71,
      "£": 72,
      "¤": 73,
      "¥": 74,
      "¦": 75,
      "§": 76,
      "¨": 77,
      "©": 78,
      "ª": 79,
      "«": 80,
      "¬": 81,
      "®": 82,
      "¯": 83,
      "°": 84,
      "±": 85,
      "²": 86,
      "³": 87,
      "´": 88,
      "µ": 89,
      "¶": 90,
      "·": 91,
      "¸": 92,
      "¹": 93,
      "º": 94,
      "»": 95,
      "¼": 96,
      "½": 97,
      "¾": 98,
      "¿": 99,
      "Â": 100,
      "Ã": 101,
      "Ä": 102,
      "Å": 103,
      "Æ": 104,
      "Ê": 105,
      "Ë": 106,
      "Ì": 107,
      "Î": 108,
      "Ï": 109,
      "Ð": 110,
      "Ñ": 111,
      "Ò": 112,
      "Ó": 113,
      "Õ": 114,
      "Ö": 115,
      "×": 116,
      "Ø": 117,
      "Ù": 118,
      "Ú": 119,
      "Û": 120,
      "à": 121,
      "á": 122,
      "â": 123,
      "ã": 124,
      "ä": 125,
      "å": 126,
      "æ": 127,
      "ç": 128,
      "è": 129,
      "é": 130,
      "ê": 131,
      "ë": 132,
      "ì": 133,
      "í": 134,
      "ï": 135,
      "ĉ": 136,
      "Ċ": 137,
      "Ġ": 138,
      "Ģ": 139,
      "ģ": 140,
      "Ĥ": 141,
      "ĥ": 142,
      "Ħ": 143,
      "ħ": 144,
      "Ĩ": 145,
      "ĩ": 146,
      "Ī": 147,
      "ī": 148,
      "Ĭ": 149,
      "ĭ": 150,
      "Į": 151,
      "į": 152,
      "İ": 153,
      "ı": 154,
      "Ĳ": 155,
      "ĳ": 156,
      "Ĵ": 157,
      "ĵ": 158,
      "Ķ": 159,
      "ķ": 160,
      "ĸ": 161,
      "Ĺ": 162,
      "ĺ": 163,
      "Ļ": 164,
      "ļ": 165,
      "Ľ": 166,
      "ľ": 167,
      "Ŀ": 168,
      "ŀ": 169,
      "Ł": 170,
      "ł": 171,
      "Ń": 172,
      "Ġt": 173,
      "he": 174,
      "Ġa": 175,
      "in": 176,
      "Ġthe": 177,
      "re": 178,
      "Ġw": 179,
      "Ġo": 180,
      "Ġs": 181,
      "is": 182,
      "ha": 183,
      "Ġb": 184,
      "Ġf": 185,
      "ou": 186,
      "er": 187,
      "Ġc": 188,
      "it": 189,
      "on": 190,
      "Ġm": 191,
      "en": 192,
      "ed": 193,
      "or": 194,
      "Ġp": 195,
      "Ġto": 196,
      "nd": 197,
      "Ġof": 198,
      "Ġin": 199,
      "Ġd": 200,
      "es": 201,
      "ll": 202,
      "ing": 203,
      "Ġn": 204,
      "the": 205,
      "Ġis": 206,
      "ar": 207,
      "an": 208,
      "Ġy": 209,
      "Ġand": 210,
      "as": 211,
      "at": 212,
      "le": 213,
      "Ġha": 214,
      "om": 215,
      "his": 216,
      "Ġbe": 217,
      "Ġl": 218,
      "ve": 219,
      "Ġg": 220,
      "Ġyou": 221,
      "ot": 222,
      "al": 223,
      "ion": 224,
      "ic": 225,
      "ow": 226,
      "hat": 227,
      "Ġe": 228,
      "ent": 229,
      "id": 230,
      "us": 231,
      "Ġfor": 232,
      "Ġre": 233,
      "ay": 234,
      "Ġhe": 235,
      "Ġh": 236,
      "Ġwas": 237,
      "im": 238,
      "Ġon": 239,
      "ct": 240,
      "ut": 241,
      "Ġare": 242,
      "ld": 243,
      "ro": 244,
      "am": 245,
      "Ġthat": 246,
      "Ġnot": 247,
      "ver": 248,
      "Ġit": 249,
      "ill": 250,
      "Ġwe": 251,
      "se": 252,
      "st": 253,
      "et": 254,
      "ir": 255,
      "Ġk": 256,
      "Ġthis": 257,
      "ad": 258,
      "Ġal": 259,
      "Ġst": 260,
      "ur": 261,
      "ly": 262,
      "Ġhave": 263,
      "Ġi": 264,
      "ce": 265,
      "so": 266,
      "ho": 267,
      "ith": 268,
      "ri": 269,
      "gh": 270,
      "ther": 271,
      "Ġwith": 272,
      "Ġan": 273,
      "we": 274,
      "od": 275,
      "Ġhas": 276,
      "il": 277,
      "Ġne": 278,
      "Ġse": 279,
      "Ġas": 280,
      "ation": 281,
      "Ġwill": 282,
      "Ġalso": 283,
      "if": 284,
      "ra": 285,
      "op": 286,
      "Ġth": 287,
      "Ġde": 288,
      "ge": 289,
      "Ġwor": 290,
      "Ġme": 291,
      "Ġsa": 292,
      "Ġfr": 293,
      "Ġcom": 294,
      "this": 295,
      "Ġpro": 296,
      "th": 297,
      "ch": 298,
      "Ġu": 299,
      "ter": 300,
      "Ġall": 301,
      "Ġhis": 302,
      "Ġcon": 303,
      "Ġfrom": 304,
      "Ġgo": 305,
      "Ġus": 306,
      "all": 307,
      "Ġat": 308,
      "ment": 309,
      "Ġdo": 310,
      "Ġj": 311,
      "ear": 312,
      "ol": 313,
      "ore": 314,
      "Ġ2": 315,
      "and": 316,
      "Ġyour": 317,
      "ess": 318,
      "nt": 319,
      "now": 320,
      "Ġ1": 321,
      "ak": 322,
      "ul": 323,
      "Ġthey": 324,
      "ght": 325,
      "Ġv": 326,
      "Ġyear": 327,
      "ame": 328,
      "est": 329,
      "pp": 330,
      "Ġpl": 331,
      "ain": 332,
      "ers": 333,
      "Ġmy": 334,
      "Ġthem": 335,
      "ble": 336,
      "Ġex": 337,
      "ant": 338,
      "Ġby": 339,
      "'s": 340,
      "Ġcan": 341,
      "Ġbeen": 342,
      "ect": 343,
      "ist": 344,
      "Ġwh": 345,
      "art": 346,
      "Ġsu": 347,
      "ac": 348,
      "Ġknow": 349,
      "Ġsaid": 350,
      "Ġhim": 351,
      "they": 352,
      "ould": 353,
      "ome": 354,
      "Ġor": 355,
      "Ġwere": 356,
      "red": 357,
      "ort": 358,
      "ok": 359,
      "Ġr": 360,
      "os": 361,
      "ate": 362,
      "han": 363,
      "ive": 364,
      "Ġman": 365,
      "one": 366,
      "Ġwho": 367,
      "iv": 368,
      "Ġle": 369,
      "our": 370,
      "very": 371,
      "Ġpe": 372,
      "Ġwork": 373,
      "there": 374,
      "Ġsp": 375,
      "ity": 376,
      "'t": 377,
      "Ġtim": 378,
      "Ġab": 379,
      "ah": 380,
      "ig": 381,
      "Ġone": 382,
      "Ġlo": 383,
      "ople": 384,
      "Ġ20": 385,
      "Ġthere": 386,
      "ies": 387,
      "hi": 388,
      "um": 389,
      "end": 390,
      "res": 391,
      "Ġhad": 392,
      "out": 393,
      "ud": 394,
      "Ġpeople": 395,
      "Ġday": 396,
      "Ġtheir": 397,
      "Ġsha": 398,
      "Ġwhe": 399,
      "un": 400,
      "el": 401,
      "Ġsh": 402,
      "Ġmo": 403,
      "qu": 404,
      "Ġtime": 405,
      "rou": 406,
      "Ġag": 407,
      "ry": 408,
      "ust": 409,
      "Ġte": 410,
      "but": 411,
      "ie": 412,
      "Ġno": 413,
      "Ġfa": 414,
      "ide": 415,
      "ong": 416,
      "Ġother": 417,
      "Ġtw": 418,
      "age": 419,
      "Ġbut": 420,
      "Ġso": 421,
      "Ġyears": 422,
      "pt": 423,
      "Ġim": 424,
      "Ġout": 425,
      "ich": 426,
      "ous": 427,
      "Ġdid": 428,
      "ast": 429,
      "Ġtwo": 430,
      "Ġcomp": 431,
      "ice": 432,
      "ount": 433,
      "Ġfo": 434,
      "ord": 435,
      "ard": 436,
      "lo": 437,
      "Ġwhich": 438,
      "em": 439,
      "Ġwhat": 440,
      "Ġabout": 441,
      "ind": 442,
      "ated": 443,
      "ure": 444,
      "ake": 445,
      "Ġnow": 446,
      "ren": 447,
      "you": 448,
      "Ġsc": 449,
      "Ġaf": 450,
      "Ġint": 451,
      "Ġup": 452,
      "Ġshall": 453,
      "Ġli": 454,
      "ke": 455,
      "ia": 456,
      "Ġnew": 457,
      "cc": 458,
      "Ġfir": 459,
      "Ġam": 460,
      "ife": 461,
      "ings": 462,
      "Ġchi": 463,
      "ab": 464,
      "Ġen": 465,
      "Ġwr": 466,
      "Ġany": 467,
      "ile": 468,
      "Ġfirst": 469,
      "Ġsay": 470,
      "ree": 471,
      "ven": 472,
      "Ġper": 473,
      "ade": 474,
      "Ġexp": 475,
      "ci": 476,
      "ally": 477,
      "Ġpr": 478,
      "Ġtr": 479,
      "ag": 480,
      "for": 481,
      "ue": 482,
      "weh": 483,
      "ahweh": 484,
      "ight": 485,
      "rent": 486,
      "ction": 487,
      "Ġchild": 488,
      "ase": 489,
      "she": 490,
      "Ġinc": 491,
      "Ġdis": 492,
      "Ġgod": 493,
      "fore": 494,
      "Ġbec": 495,
      "Ġar": 496,
      "use": 497,
      "Ġser": 498,
      "ult": 499,
      "able": 500,
      "Ġad": 501,
      "Ġind": 502,
      "Ġmore": 503,
      "vel": 504,
      "Ġwhen": 505,
      "Ġun": 506,
      "ap": 507,
      "Ġvery": 508,
      "Ġfe": 509,
      "Ġmany": 510,
      "Ġoff": 511,
      "Ġwant": 512,
      "Ġyahweh": 513,
      "Ġcomm": 514,
      "Ġimp": 515,
      "Ġbo": 516,
      "ace": 517,
      "Ġcont": 518,
      "Ġher": 519,
      "Ġpart": 520,
      "Ġour": 521,
      "Ġsome": 522,
      "ine": 523,
      "Ġonly": 524,
      "Ġco": 525,
      "ans": 526,
      "iz": 527,
      "ck": 528,
      "fe": 529,
      "Ġmade": 530,
      "Ġcl": 531,
      "Ġbs": 532,
      "Ġplay": 533,
      "reat": 534,
      "Ġneed": 535,
      "Ġlife": 536,
      "Ġlike": 537,
      "ouse": 538,
      "ied": 539,
      "Ġmar": 540,
      "Ġson": 541,
      "Ġcount": 542,
      "ber": 543,
      "Ġshe": 544,
      "Ġres": 545,
      "ire": 546,
      "Ġagain": 547,
      "ause": 548,
      "Ġmay": 549,
      "Ġwell": 550,
      "ack": 551,
      "Ġthan": 552,
      "ily": 553,
      "Ġif": 554,
      "ign": 555,
      "ach": 556,
      "Ġapp": 557,
      "Ġhouse": 558,
      "ite": 559,
      "Ġfam": 560,
      "con": 561,
      "ved": 562,
      "Ġgood": 563,
      "ions": 564,
      "Ġafter": 565,
      "Ġinto": 566,
      "hed": 567,
      "oth": 568,
      "ub": 569,
      "Ġworld": 570,
      "Ġevery": 571,
      "are": 572,
      "Ġri": 573,
      "pe": 574,
      "ep": 575,
      "Ġpo": 576,
      "Ġfil": 577,
      "Ġro": 578,
      "Ġthese": 579,
      "itt": 580,
      "Ġspe": 581,
      "ary": 582,
      "du": 583,
      "Ġqu": 584,
      "Ġsee": 585,
      "lect": 586,
      "Ġhow": 587,
      "sel": 588,
      "Ġ3": 589,
      "Ġpre": 590,
      "how": 591,
      "her": 592,
      "ater": 593,
      "pl": 594,
      "ff": 595,
      "Ġdif": 596,
      "ound": 597,
      "Ġhere": 598,
      "Ġhapp": 599,
      "ru": 600,
      "ject": 601,
      "Ġchildren": 602,
      "ress": 603,
      "ail": 604,
      "Ġchan": 605,
      "ink": 606,
      "ctor": 607,
      "that": 608,
      "Ġshould": 609,
      "ass": 610,
      "wn": 611,
      "Ġop": 612,
      "Ġwould": 613,
      "vern": 614,
      "00": 615,
      "Ġstart": 616,
      "Ġacc": 617,
      "ance": 618,
      "Ġover": 619,
      "ence": 620,
      "Ġits": 621,
      "nder": 622,
      "Ġname": 623,
      "Ġlot": 624,
      "Ġdays": 625,
      "own": 626,
      "Ġking": 627,
      "ath": 628,
      "Ġbet": 629,
      "Ġfather": 630,
      "Ġdoes": 631,
      "whe": 632,
      "Ġgovern": 633,
      "any": 634,
      "ations": 635,
      "way": 636,
      "Ġbefore": 637,
      "Ġfamily": 638,
      "Ġ19": 639,
      "Ġset": 640,
      "lic": 641,
      "Ġuse": 642,
      "Ġrem": 643,
      "ition": 644,
      "int": 645,
      "Ġread": 646,
      "ish": 647,
      "Ġtoo": 648,
      "be": 649,
      "Ġke": 650,
      "Ġhand": 651,
      "Ġgovernment": 652,
      "Ġpol": 653,
      "Ġgoing": 654,
      "ple": 655,
      "ning": 656,
      "Ġunder": 657,
      "Ġget": 658,
      "Ġdec": 659,
      "Ġcha": 660,
      "Ġwom": 661,
      "Ġserv": 662,
      "get": 663,
      "Ġmon": 664,
      "Ġcall": 665,
      "Ġway": 666,
      "Ġright": 667,
      "Ġthree": 668,
      "velop": 669,
      "Ġused": 670,
      "ious": 671,
      "Ġhome": 672,
      "let": 673,
      "ory": 674,
      "Ġch": 675,
      "Ġthen": 676,
      "day": 677,
      "other": 678,
      "Ġcome": 679,
      "ased": 680,
      "Ġear": 681,
      "Ġbook": 682,
      "Ġ4": 683,
      "Ġdevelop": 684,
      "ric": 685,
      "ial": 686,
      "Ġmake": 687,
      "form": 688,
      "Ġbu": 689,
      "Ġbecause": 690,
      "Ġgreat": 691,
      "gr": 692,
      "Ġdiffe": 693,
      "Ġthings": 694,
      "Ġfile": 695,
      "my": 696,
      "lp": 697,
      "what": 698,
      "Ġcountry": 699,
      "Ġwhere": 700,
      "Ġsin": 701,
      "hose": 702,
      "ful": 703,
      "Ġplace": 704,
      "ned": 705,
      "Ġra": 706,
      "cent": 707,
      "hing": 708,
      "Ġhelp": 709,
      "Ġnum": 710,
      "Ġold": 711,
      "Ġ\"": 712,
      "Ġcur": 713,
      "Ġown": 714,
      "og": 715,
      "Ġcame": 716,
      "Ġsame": 717,
      "ried": 718,
      "Ġ207": 719,
      "rael": 720,
      "Ġact": 721,
      "Ġla": 722,
      "Ġda": 723,
      "si": 724,
      "Ġdon": 725,
      "ical": 726,
      "uch": 727,
      "Ġisrael": 728,
      "Ġph": 729,
      "ces": 730,
      "read": 731,
      "xt": 732,
      "hool": 733,
      "pal": 734,
      "ities": 735,
      "Ġlook": 736,
      "Ġcould": 737,
      "ne": 738,
      "Ġbr": 739,
      "blem": 740,
      "Ġjo": 741,
      "ness": 742,
      "llow": 743,
      "ang": 744,
      "ital": 745,
      "Ġproblem": 746,
      "Ġjust": 747,
      "port": 748,
      "Ġplan": 749,
      "cial": 750,
      "Ġland": 751,
      "Ġ5": 752,
      "ened": 753,
      "Ġlong": 754,
      "Ġlast": 755,
      "ween": 756,
      "ked": 757,
      "Ġliv": 758,
      "ident": 759,
      "Ġboth": 760,
      "ks": 761,
      "no": 762,
      "Ġincre": 763,
      "ise": 764,
      "Ġschool": 765,
      "Ġdes": 766,
      "Ġbetween": 767,
      "Ġeven": 768,
      "Ġmonth": 769,
      "cess": 770,
      "Ġem": 771,
      "alth": 772,
      "Ġagainst": 773,
      "ever": 774,
      "igh": 775,
      "Ġmen": 776,
      "Ġpos": 777,
      "Ġfilm": 778,
      "Ġtake": 779,
      "Ġgiv": 780,
      "ft": 781,
      "Ġthose": 782,
      "ving": 783,
      "Ġnepal": 784,
      "Ġent": 785,
      "self": 786,
      "Ġlist": 787,
      "Ġprov": 788,
      "Ġgr": 789,
      "Ġsy": 790,
      "Ġadd": 791,
      "gram": 792,
      "Ġmuch": 793,
      "Ġfour": 794,
      "ens": 795,
      "Ġgame": 796,
      "Ġmin": 797,
      "Ġfound": 798,
      "Ġcons": 799,
      "round": 800,
      "Ġtra": 801,
      "Ġdown": 802,
      "rough": 803,
      "Ġfollow": 804,
      "not": 805,
      "ason": 806,
      "Ġatt": 807,
      "Ġinv": 808,
      "orn": 809,
      "Ġbeing": 810,
      "Ġimport": 811,
      "ves": 812,
      "Ġbus": 813,
      "ave": 814,
      "Ġpres": 815,
      "Ġpri": 816,
      "gin": 817,
      "Ġdifferent": 818,
      "riend": 819,
      "ert": 820,
      "Ġma": 821,
      "Ġprodu": 822,
      "Ġev": 823,
      "Ġrel": 824,
      "Ġthrough": 825,
      "Ġword": 826,
      "ody": 827,
      "Ġreg": 828,
      "Ġstud": 829,
      "uring": 830,
      "Ġwent": 831,
      "Ġcalled": 832,
      "Ġthou": 833,
      "Ġsuch": 834,
      "Ġanother": 835,
      "ced": 836,
      "act": 837,
      "Ġcar": 838,
      "Ġmother": 839,
      "Ġpers": 840,
      "Ġback": 841,
      "ents": 842,
      "pport": 843,
      "Ġbro": 844,
      "ward": 845,
      "Ġnumber": 846,
      "Ġeff": 847,
      "Ġfl": 848,
      "ower": 849,
      "Ġnever": 850,
      "Ġindia": 851,
      "20": 852,
      "Ġfriend": 853,
      "Ġprogram": 854,
      "Ġed": 855,
      "Ġwhy": 856,
      "Ġpub": 857,
      "Ġbud": 858,
      "ages": 859,
      "tern": 860,
      "Ġdevelopment": 861,
      "Ġlet": 862,
      "Ġwater": 863,
      "ild": 864,
      "ket": 865,
      "illion": 866,
      "Ġloc": 867,
      "ected": 868,
      "Ġsays": 869,
      "Ġmost": 870,
      "mo": 871,
      "Ġcity": 872,
      "Ġcol": 873,
      "Ġans": 874,
      "Ġresp": 875,
      "ip": 876,
      "Ġmed": 877,
      "Ġtoday": 878,
      "Ġperson": 879,
      "Ġthink": 880,
      "Ġcurrent": 881,
      "Ġdidn": 882,
      "led": 883,
      "Ġend": 884,
      "rest": 885,
      "Ġform": 886,
      "Ġfore": 887,
      "Ġbel": 888,
      "gan": 889,
      "omet": 890,
      "ged": 891,
      "li": 892,
      "Ġrec": 893,
      "iness": 894,
      "Ġcompany": 895,
      "Ġproject": 896,
      "do": 897,
      "Ġlord": 898,
      "ix": 899,
      "Ġhealth": 900,
      "Ġreason": 901,
      "ished": 902,
      "Ġinst": 903,
      "Ġdied": 904,
      "erm": 905,
      "Ġbudget": 906,
      "ments": 907,
      "ries": 908,
      "Ġsince": 909,
      "osp": 910,
      "mb": 911,
      "ors": 912,
      "Ġwomen": 913,
      "Ġtook": 914,
      "Ġob": 915,
      "Ġgiven": 916,
      "hy": 917,
      "Ġ6": 918,
      "Ġselect": 919,
      "hold": 920,
      "Ġeach": 921,
      "Ġmust": 922,
      "Ġprop": 923,
      "err": 924,
      "Ġbl": 925,
      "cond": 926,
      "Ġca": 927,
      "iew": 928,
      "les": 929,
      "Ġcre": 930,
      "Ġpercent": 931,
      "Ġstarted": 932,
      "Ġhigh": 933,
      "Ġ201": 934,
      "Ġpass": 935,
      "ording": 936,
      "ames": 937,
      "Ġho": 938,
      "Ġnor": 939,
      "ull": 940,
      "Ġdone": 941,
      "Ġfin": 942,
      "arch": 943,
      "roup": 944,
      "vers": 945,
      "Ġmat": 946,
      "Ġeas": 947,
      "Ġdef": 948,
      "when": 949,
      "then": 950,
      "Ġaway": 951,
      "Ġhosp": 952,
      "ices": 953,
      "Ġstill": 954,
      "its": 955,
      "Ġhospital": 956,
      "Ġ8": 957,
      "iting": 958,
      "hip": 959,
      "Ġfew": 960,
      "oney": 961,
      "ates": 962,
      "Ġret": 963,
      "Ġgive": 964,
      "Ġworking": 965,
      "sible": 966,
      "ract": 967,
      "Ġsecond": 968,
      "ina": 969,
      "ared": 970,
      "ugh": 971,
      "Ġgroup": 972,
      "ick": 973,
      "Ġval": 974,
      "Ġdist": 975,
      "Ġmeet": 976,
      "Ġduring": 977,
      "Ġfar": 978,
      "Ġwhile": 979,
      "als": 980,
      "Ġseen": 981,
      "thing": 982,
      "Ġsaying": 983,
      "ered": 984,
      "Ġ7": 985,
      "Ġtak": 986,
      "Ġinte": 987,
      "Ġlaw": 988,
      "Ġvide": 989,
      "ision": 990,
      "these": 991,
      "Ġshow": 992,
      ".\"": 993,
      "Ġwar": 994,
      "Ġinform": 995,
      "Ġearth": 996,
      "Ġyet": 997,
      "Ġsomet": 998,
      "Ġopen": 999,
      "Ġleft": 1000,
      "Ġdire": 1001,
      "eri": 1002,
      "ational": 1003,
      "Ġart": 1004,
      "hes": 1005,
      "Ġmod": 1006,
      "stem": 1007,
      "ited": 1008,
      "Ġty": 1009,
      "Ġsign": 1010,
      "Ġconf": 1011,
      "Ġple": 1012,
      "Ġwon": 1013,
      "ef": 1014,
      "Ġbusiness": 1015,
      "Ġhar": 1016,
      "Ġdep": 1017,
      "ters": 1018,
      "Ġtell": 1019,
      "Ġput": 1020,
      "Ġsub": 1021,
      "Ġborn": 1022,
      "Ġquest": 1023,
      "Ġmarket": 1024,
      "Ġage": 1025,
      "Ġjud": 1026,
      "Ġcour": 1027,
      "error": 1028,
      "ating": 1029,
      "Ġconst": 1030,
      "urn": 1031,
      "Ġfive": 1032,
      "iss": 1033,
      "gy": 1034,
      "Ġmoney": 1035,
      "ific": 1036,
      "Ġcommand": 1037,
      "ility": 1038,
      "Ġago": 1039,
      "Ġknown": 1040,
      "Ġ9": 1041,
      "ines": 1042,
      "Ġmess": 1043,
      "ges": 1044,
      "Ġgot": 1045,
      "illed": 1046,
      "Ġwind": 1047,
      "ided": 1048,
      "uth": 1049,
      "ian": 1050,
      "esus": 1051,
      "Ġimportant": 1052,
      "Ġsystem": 1053,
      "Ġest": 1054,
      "Ġsent": 1055,
      "yes": 1056,
      "Ġrequ": 1057,
      "Ġthought": 1058,
      "ote": 1059,
      "alk": 1060,
      "Ġkey": 1061,
      "Ġblo": 1062,
      "ale": 1063,
      "Ġ10": 1064,
      "ph": 1065,
      "ield": 1066,
      "der": 1067,
      "âĢ": 1068,
      "ption": 1069,
      "Ġbrother": 1070,
      "Ġdat": 1071,
      "Ġpa": 1072,
      "why": 1073,
      "Ġtrans": 1074,
      "Ġlove": 1075,
      "Ġheart": 1076,
      "lud": 1077,
      "Ġmonths": 1078,
      "Ġthir": 1079,
      "osed": 1080,
      "Ġpublic": 1081,
      "af": 1082,
      "Ġheard": 1083,
      "Ġmet": 1084,
      "ose": 1085,
      "Ġspeak": 1086,
      "Ġbody": 1087,
      "Ġmain": 1088,
      "Ġexperi": 1089,
      "Ġban": 1090,
      "gether": 1091,
      "Ġthing": 1092,
      "Ġac": 1093,
      "ize": 1094,
      "however": 1095,
      "uc": 1096,
      "Ġsit": 1097,
      "Ġhop": 1098,
      "Ġdaugh": 1099,
      "Ġfriends": 1100,
      "Ġpower": 1101,
      "ution": 1102,
      "Ġeffect": 1103,
      "cy": 1104,
      "Ġcle": 1105,
      "Ġlear": 1106,
      "Ġcr": 1107,
      "itten": 1108,
      "bo": 1109,
      "ual": 1110,
      "Ġrespon": 1111,
      "Ġvideo": 1112,
      "ough": 1113,
      "Ġwee": 1114,
      "Ġdisc": 1115,
      "Ġcomplet": 1116,
      "Ġtry": 1117,
      "Ġsm": 1118,
      "Ġpur": 1119,
      "Ġunderst": 1120,
      "Ġsim": 1121,
      "ired": 1122,
      "Ġsaw": 1123,
      "ready": 1124,
      "Ġmov": 1125,
      "Ġsector": 1126,
      "Ġsomething": 1127,
      "Ġvar": 1128,
      "Ġtogether": 1129,
      "Ġstate": 1130,
      "ccess": 1131,
      "ised": 1132,
      "Ġrun": 1133,
      "Ġwritten": 1134,
      "Ġhappened": 1135,
      "Ġins": 1136,
      "Ġlead": 1137,
      "Ġcor": 1138,
      "Ġfood": 1139,
      "Ġav": 1140,
      "Ġmight": 1141,
      "Ġsou": 1142,
      "Ġiss": 1143,
      "Ġche": 1144,
      "ng": 1145,
      "ants": 1146,
      "ts": 1147,
      "Ġhead": 1148,
      "und": 1149,
      "ars": 1150,
      "Ġdeath": 1151,
      "Ġalready": 1152,
      "ists": 1153,
      "Ġvis": 1154,
      "Ġele": 1155,
      "Ġnews": 1156,
      "Ġstr": 1157,
      "Ġsupport": 1158,
      "Ġsong": 1159,
      "Ġarea": 1160,
      "Ġoffer": 1161,
      "Ġrele": 1162,
      "Ġinformation": 1163,
      "Ġfind": 1164,
      "Ġchange": 1165,
      "ty": 1166,
      "Ġrest": 1167,
      "Ġrece": 1168,
      "Ġprev": 1169,
      "207": 1170,
      "Ġcountries": 1171,
      "Ġplayed": 1172,
      "Ġz": 1173,
      "ting": 1174,
      "Ġsur": 1175,
      "Ġcent": 1176,
      "iod": 1177,
      "Ġclo": 1178,
      "Ġaff": 1179,
      "Ġbuild": 1180,
      "ular": 1181,
      "Ġlar": 1182,
      "Ġcro": 1183,
      "Ġ200": 1184,
      "Ġcoll": 1185,
      "Ġfield": 1186,
      "iah": 1187,
      "Ġfold": 1188,
      "Ġperiod": 1189,
      "Ġsuccess": 1190,
      "Ġrep": 1191,
      "Ġworked": 1192,
      "Ġmarried": 1193,
      "cer": 1194,
      "me": 1195,
      "Ġamong": 1196,
      "Ġothers": 1197,
      "ted": 1198,
      "Ġpast": 1199,
      "Ġsons": 1200,
      "Ġansw": 1201,
      "could": 1202,
      "Ġexam": 1203,
      "Ġaround": 1204,
      "after": 1205,
      "Ġvill": 1206,
      "Ġselected": 1207,
      "ural": 1208,
      "Ġreport": 1209,
      "Ġpar": 1210,
      "Ġwindow": 1211,
      "Ġinterest": 1212,
      "Ġprocess": 1213,
      "Ġgu": 1214,
      "Ġinclud": 1215,
      "rought": 1216,
      "Ġable": 1217,
      "new": 1218,
      "up": 1219,
      "Ġtold": 1220,
      "Ġsec": 1221,
      "Ġworks": 1222,
      "ually": 1223,
      "Ġfeel": 1224,
      "ener": 1225,
      "Ġconn": 1226,
      "Ġhour": 1227,
      "Ġpoint": 1228,
      "Ġkeep": 1229,
      "Ġimage": 1230,
      "Ġasked": 1231,
      "ures": 1232,
      "Ġhear": 1233,
      "Ġbrought": 1234,
      "Ġbelie": 1235,
      "âĢĻ": 1236,
      "Ġdoing": 1237,
      "angu": 1238,
      "Ġmus": 1239,
      "Ġchina": 1240,
      "Ġdet": 1241,
      "Ġlevel": 1242,
      "Ġwoman": 1243,
      "Ġtest": 1244,
      "play": 1245,
      "ove": 1246,
      "Ġbig": 1247,
      "Ġsol": 1248,
      "Ġstay": 1249,
      "ized": 1250,
      "Ġunderstand": 1251,
      "ood": 1252,
      "Ġjesus": 1253,
      "Ġdr": 1254,
      "lf": 1255,
      "Ġeat": 1256,
      "ified": 1257,
      "Ġnothing": 1258,
      "'re": 1259,
      "Ġeasy": 1260,
      "Ġbillion": 1261,
      "Ġlangu": 1262,
      "ains": 1263,
      "Ġspok": 1264,
      "ys": 1265,
      "Ġstand": 1266,
      "Ġext": 1267,
      "Ġinf": 1268,
      "Ġcare": 1269,
      "ime": 1270,
      "Ġfollowing": 1271,
      "Ġthird": 1272,
      "Ġhope": 1273,
      "vid": 1274,
      "Ġnext": 1275,
      "lished": 1276,
      "ict": 1277,
      "ither": 1278,
      "Ġhappy": 1279,
      "med": 1280,
      "Ġben": 1281,
      "Ġmean": 1282,
      "ative": 1283,
      "Ġfut": 1284,
      "to": 1285,
      "Ġwrite": 1286,
      "Ġyoung": 1287,
      "Ġpolit": 1288,
      "Ġbecome": 1289,
      "ues": 1290,
      "te": 1291,
      "cri": 1292,
      "Ġinvest": 1293,
      "Ġservice": 1294,
      "Ġview": 1295,
      "Ġfire": 1296,
      "Ġtem": 1297,
      "Ġsk": 1298,
      "Ġeyes": 1299,
      "Ġdata": 1300,
      "Ġlive": 1301,
      "unity": 1302,
      "ined": 1303,
      "Ġje": 1304,
      "Ġmak": 1305,
      "Ġbring": 1306,
      "Ġavail": 1307,
      "'m": 1308,
      "'ve": 1309,
      "Ġtimes": 1310,
      "par": 1311,
      "Ġfun": 1312,
      "Ġmovie": 1313,
      "where": 1314,
      "Ġemp": 1315,
      "Ġsing": 1316,
      "à¤": 1317,
      "Ġcase": 1318,
      "Ġfull": 1319,
      "some": 1320,
      "Ġpossible": 1321,
      "Ġeduc": 1322,
      "Ġnear": 1323,
      "Ġfuture": 1324,
      "Ġce": 1325,
      "Ġgl": 1326,
      "Ġunt": 1327,
      "Ġbegin": 1328,
      "Ġsw": 1329,
      "Ġcap": 1330,
      "urned": 1331,
      "Ġorgan": 1332,
      "Ġeng": 1333,
      "Ġgrow": 1334,
      "Ġwife": 1335,
      "Ġwords": 1336,
      "Ġteam": 1337,
      "Ġdev": 1338,
      "Ġass": 1339,
      "Ġmeans": 1340,
      "Ġocc": 1341,
      "ection": 1342,
      "oses": 1343,
      "Ġspec": 1344,
      "can": 1345,
      "Ġpresent": 1346,
      "ways": 1347,
      "Ġhum": 1348,
      "Ġwithout": 1349,
      "selves": 1350,
      "Ġair": 1351,
      "Ġmove": 1352,
      "ify": 1353,
      "Ġavailable": 1354,
      "ient": 1355,
      "conom": 1356,
      "uation": 1357,
      "ety": 1358,
      "Ġfoot": 1359,
      "Ġparty": 1360,
      "Ġjob": 1361,
      "gest": 1362,
      "Ġaccording": 1363,
      "Ġtri": 1364,
      "amp": 1365,
      "Ġcho": 1366,
      "Ġcontin": 1367,
      "used": 1368,
      "select": 1369,
      "ics": 1370,
      "Ġgener": 1371,
      "Ġallow": 1372,
      "Ġtext": 1373,
      "veral": 1374,
      "oun": 1375,
      "Ġbest": 1376,
      "Ġindust": 1377,
      "Ġcolor": 1378,
      "Ġreally": 1379,
      "Ġnight": 1380,
      "Ġintern": 1381,
      "Ġanswer": 1382,
      "Ġstory": 1383,
      "ained": 1384,
      "Ġ15": 1385,
      "Ġeconom": 1386,
      "Ġfolder": 1387,
      "Ġsix": 1388,
      "Ġwithin": 1389,
      "Ġlocal": 1390,
      "Ġpolic": 1391,
      "Ġvillage": 1392,
      "Ġjer": 1393,
      "Ġreal": 1394,
      "Ġpop": 1395,
      "Ġface": 1396,
      "Ġproblems": 1397,
      "Ġta": 1398,
      "Ġeveryone": 1399,
      "Ġobject": 1400,
      "Ġlater": 1401,
      "cept": 1402,
      "Ġgames": 1403,
      "Ġru": 1404,
      "Ġsave": 1405,
      "ream": 1406,
      "many": 1407,
      "Ġ12": 1408,
      "Ġbas": 1409,
      "Ġfail": 1410,
      "loy": 1411,
      "Ġcontro": 1412,
      "Ġexperience": 1413,
      "Ġterm": 1414,
      "Ġ18": 1415,
      "Ġel": 1416,
      "de": 1417,
      "Ġsocial": 1418,
      "Ġroad": 1419,
      "Ġpriest": 1420,
      "Ġtre": 1421,
      "ature": 1422,
      "Ġcourt": 1423,
      "search": 1424,
      "Ġmount": 1425,
      "ousand": 1426,
      "ites": 1427,
      "Ġplac": 1428,
      "Ġquestion": 1429,
      "ides": 1430,
      "Ġtype": 1431,
      "Ġchr": 1432,
      "Ġdaughter": 1433,
      "Ġfac": 1434,
      "Ġvo": 1435,
      "Ġprot": 1436,
      "acc": 1437,
      "Ġkind": 1438,
      "ruct": 1439,
      "uss": 1440,
      "Ġsure": 1441,
      "Ġhimself": 1442,
      "Ġincrease": 1443,
      "Ġrul": 1444,
      "Ġlooking": 1445,
      "pr": 1446,
      "Ġuntil": 1447,
      "Ġteac": 1448,
      "Ġref": 1449,
      "ention": 1450,
      "ute": 1451,
      "Ġpartic": 1452,
      "Ġoper": 1453,
      "Ġtaken": 1454,
      "Ġsmall": 1455,
      "Ġgave": 1456,
      "ister": 1457,
      "har": 1458,
      "Ġgra": 1459,
      "Ġready": 1460,
      "Ġside": 1461,
      "Ġpolice": 1462,
      "Ġclose": 1463,
      "Ġwa": 1464,
      "Ġseveral": 1465,
      "Ġmaj": 1466,
      "ically": 1467,
      "Ġenc": 1468,
      "Ġoffic": 1469,
      "Ġmeeting": 1470,
      "Ġvarious": 1471,
      "Ġnational": 1472,
      "man": 1473,
      "Ġbecame": 1474,
      "Ġhard": 1475,
      "Ġshort": 1476,
      "Ġtrue": 1477,
      "Ġwriting": 1478,
      "Ġforeign": 1479,
      "mbers": 1480,
      "Ġfree": 1481,
      "Ġresult": 1482,
      "Ġtherefore": 1483,
      "Ġwhole": 1484,
      "Ġproduct": 1485,
      "Ġbir": 1486,
      "ctions": 1487,
      "Ġthousand": 1488,
      "Ġhist": 1489,
      "Ġdecision": 1490,
      "Ġinter": 1491,
      "Ġusing": 1492,
      "Ġbehold": 1493,
      "Ġmembers": 1494,
      "Ġconcer": 1495,
      "Ġmem": 1496,
      "Ġliving": 1497,
      "Ġmedia": 1498,
      "aut": 1499,
      "000": 1500,
      "Ġpost": 1501,
      "every": 1502,
      "jo": 1503,
      "has": 1504,
      "Ġprof": 1505,
      "ribut": 1506,
      "go": 1507,
      "Ġstudy": 1508,
      "cu": 1509,
      "Ġknew": 1510,
      "ash": 1511,
      "ived": 1512,
      "Ġnecess": 1513,
      "Ġdavid": 1514,
      "Ġsituation": 1515,
      "Ġdoesn": 1516,
      "Ġlives": 1517,
      "side": 1518,
      "Ġdiff": 1519,
      "..": 1520,
      "Ġwat": 1521,
      "ai": 1522,
      "Ġmom": 1523,
      "mand": 1524,
      "Ġkilled": 1525,
      "ball": 1526,
      "Ġ(": 1527,
      "Ġincreased": 1528,
      "Ġtalk": 1529,
      "Ġalways": 1530,
      "Ġtop": 1531,
      "Ġdue": 1532,
      "Ġhea": 1533,
      "Ġanything": 1534,
      "Ġchrist": 1535,
      "ex": 1536,
      "Ġwhom": 1537,
      "ret": 1538,
      "raw": 1539,
      "lement": 1540,
      "Ġwanted": 1541,
      "Ġcannot": 1542,
      "rence": 1543,
      "gress": 1544,
      "Ġmid": 1545,
      "Ġdest": 1546,
      "Ġcert": 1547,
      "apan": 1548,
      "br": 1549,
      "ork": 1550,
      "ives": 1551,
      "Ġmillion": 1552,
      "Ġmessage": 1553,
      "who": 1554,
      "Ġorder": 1555,
      "Ġwrong": 1556,
      "set": 1557,
      "Ġoffice": 1558,
      "ont": 1559,
      "Ġseven": 1560,
      "Ġestab": 1561,
      "here": 1562,
      "Ġweek": 1563,
      "Ġmusic": 1564,
      "Ġplease": 1565,
      "Ġpain": 1566,
      "Ġactiv": 1567,
      "Ġcrore": 1568,
      "Ġreleased": 1569,
      "ug": 1570,
      "Ġir": 1571,
      "ond": 1572,
      "Ġcond": 1573,
      "ining": 1574,
      "Ġsl": 1575,
      "Ġline": 1576,
      "az": 1577,
      "ark": 1578,
      "Ġfiles": 1579,
      "Ġcommitt": 1580,
      "Ġcreate": 1581,
      "Ġwrote": 1582,
      "lish": 1583,
      "cle": 1584,
      "less": 1585,
      "Ġteacher": 1586,
      "ems": 1587,
      "Ġimpro": 1588,
      "Ġprom": 1589,
      "Ġeducation": 1590,
      "alem": 1591,
      "oint": 1592,
      "Ġlay": 1593,
      "ism": 1594,
      "usalem": 1595,
      "Ġissue": 1596,
      "ince": 1597,
      "Ġtech": 1598,
      "ault": 1599,
      "Ġ206": 1600,
      "Ġmajor": 1601,
      "ases": 1602,
      "ilt": 1603,
      "Ġ11": 1604,
      "Ġspir": 1605,
      "Ġjerusalem": 1606,
      "Ġbur": 1607,
      "ather": 1608,
      "Ġspecial": 1609,
      "per": 1610,
      "ruction": 1611,
      "Ġ30": 1612,
      "Ġlarge": 1613,
      "Ġagree": 1614,
      "Ġservices": 1615,
      "Ġtreat": 1616,
      "Ġdel": 1617,
      "Ġes": 1618,
      "dom": 1619,
      "Ġdrink": 1620,
      "Ġann": 1621,
      "therefore": 1622,
      "Ġnecessary": 1623,
      "Ġwasn": 1624,
      "Ġbank": 1625,
      "Ã¢": 1626,
      "Ġ205": 1627,
      "ten": 1628,
      "Ġlight": 1629,
      "Ġhappen": 1630,
      "Ġcust": 1631,
      "Ġdri": 1632,
      "ware": 1633,
      "ps": 1634,
      "Ġpriv": 1635,
      "most": 1636,
      "Ġdiv": 1637,
      "Ġstop": 1638,
      "Ġblood": 1639,
      "Ġclear": 1640,
      "Ġvalue": 1641,
      "ched": 1642,
      "Ġhands": 1643,
      "Ġtechn": 1644,
      "Ġknows": 1645,
      "Ġadv": 1646,
      "Ġcurrently": 1647,
      "Ġparent": 1648,
      "ons": 1649,
      "Ġemploy": 1650,
      "Ġ199": 1651,
      "Ġbenef": 1652,
      "Ġdream": 1653,
      "Ġtot": 1654,
      "Ġelect": 1655,
      "Ġareas": 1656,
      "Ġphot": 1657,
      "Ġdead": 1658,
      "Ġteach": 1659,
      "Ġfootball": 1660,
      "ger": 1661,
      "Ġstep": 1662,
      "both": 1663,
      "com": 1664,
      "Ġdise": 1665,
      "icle": 1666,
      "Ġcompet": 1667,
      "Ġchanged": 1668,
      "Ġdisplay": 1669,
      "Ġsat": 1670,
      "Ġmind": 1671,
      "Ġprep": 1672,
      "Ġplaying": 1673,
      "Ġoccur": 1674,
      "ached": 1675,
      "Ġjudah": 1676,
      "ured": 1677,
      "icult": 1678,
      "Ġtool": 1679,
      "Ġheld": 1680,
      "Ġoutside": 1681,
      "Ġlanguage": 1682,
      "Ġuser": 1683,
      "olog": 1684,
      "Ġcoming": 1685,
      "Ġcheck": 1686,
      "Ġprevious": 1687,
      "bs": 1688,
      "Ġjapan": 1689,
      "Ġ'": 1690,
      "att": 1691,
      "Ġfact": 1692,
      "cause": 1693,
      "Ġchanges": 1694,
      "Ġpolicy": 1695,
      "Ġspirit": 1696,
      "Ġsho": 1697,
      "Ġmult": 1698,
      "Ġopport": 1699,
      "ember": 1700,
      "Ġask": 1701,
      "Ġwin": 1702,
      "chan": 1703,
      "Ġappro": 1704,
      "bility": 1705,
      "Ġhours": 1706,
      "gypt": 1707,
      "Ġpeace": 1708,
      "Ġdifficult": 1709,
      "Ġauth": 1710,
      "Ġflo": 1711,
      "Ġbetter": 1712,
      "Ġactive": 1713,
      "Ġris": 1714,
      "Ġimplement": 1715,
      "utes": 1716,
      "wered": 1717,
      "because": 1718,
      "Ġadm": 1719,
      "ples": 1720,
      "Ġhuman": 1721,
      "io": 1722,
      "Ġpresident": 1723,
      "Ġpurp": 1724,
      "Ġexample": 1725,
      "Ġfall": 1726,
      "Ġneeds": 1727,
      "ma": 1728,
      "Ġerror": 1729,
      "Ġegypt": 1730,
      "had": 1731,
      "Ġenter": 1732,
      "Ġanswered": 1733,
      "ss": 1734,
      "Ġgir": 1735,
      "Ġclass": 1736,
      "Ġfarm": 1737,
      "ible": 1738,
      "Ġbrothers": 1739,
      "orts": 1740,
      "ended": 1741,
      "ittle": 1742,
      "Ġresearch": 1743,
      "Ġanim": 1744,
      "Ġsupp": 1745,
      "Ġsour": 1746,
      "Ġbab": 1747,
      "ĠĠ": 1748,
      "Ġbegan": 1749,
      "Ġapplic": 1750,
      "Ġbre": 1751,
      "Ġchar": 1752,
      "row": 1753,
      "load": 1754,
      "ession": 1755,
      "Ġtrying": 1756,
      "ee": 1757,
      "their": 1758,
      "Ġbuilt": 1759,
      "Ġbooks": 1760,
      "Ġcustom": 1761,
      "Ġreasons": 1762,
      "ik": 1763,
      "Ġtour": 1764,
      "Ġsend": 1765,
      "Ġpage": 1766,
      "Ġdistric": 1767,
      "Ġexist": 1768,
      "esh": 1769,
      "Ġsearch": 1770,
      "line": 1771,
      "Ġclosed": 1772,
      "Ġbar": 1773,
      "ner": 1774,
      "Ġide": 1775,
      "Ġlittle": 1776,
      "reen": 1777,
      "ization": 1778,
      "Ġ16": 1779,
      "Ġever": 1780,
      "Ġholy": 1781,
      "ught": 1782,
      "ls": 1783,
      "oc": 1784,
      "Ġ14": 1785,
      "Ġvoice": 1786,
      "ality": 1787,
      "Ġspoke": 1788,
      "Ġba": 1789,
      "ense": 1790,
      "ately": 1791,
      "Ġmatter": 1792,
      "Ġoffering": 1793,
      "Ġroom": 1794,
      "Ġdocu": 1795,
      "Ġaccount": 1796,
      "Ġbelieve": 1797,
      "according": 1798,
      "Ġprojects": 1799,
      "Ġauthor": 1800,
      "Ġgold": 1801,
      "Ġthough": 1802,
      "Ġplaces": 1803,
      "Ġtrad": 1804,
      "Ġrecord": 1805,
      "Ġstat": 1806,
      "Ġbeginning": 1807,
      "Ġparents": 1808,
      "Ġbased": 1809,
      "Ġlearn": 1810,
      "body": 1811,
      "gth": 1812,
      "Ġphone": 1813,
      "Ġcities": 1814,
      "Ġcomes": 1815,
      "Ġcause": 1816,
      "chie": 1817,
      "Ġevent": 1818,
      "Ġrecent": 1819,
      "ored": 1820,
      "Ġstrong": 1821,
      "Ġproduction": 1822,
      "well": 1823,
      "iter": 1824,
      "ging": 1825,
      "Ġcontact": 1826,
      "Ġve": 1827,
      "Ġhaving": 1828,
      "Ġrole": 1829,
      "Ġfear": 1830,
      "Ġjour": 1831,
      "Ġneither": 1832,
      "Ġcreated": 1833,
      "Ġcamp": 1834,
      "Ġtar": 1835,
      "Ġcal": 1836,
      "by": 1837,
      "ination": 1838,
      "Ġoption": 1839,
      "Ġbra": 1840,
      "ison": 1841,
      "Ġtotal": 1842,
      "Ġaddress": 1843,
      "undred": 1844,
      "Ġheaven": 1845,
      "Ġ198": 1846,
      "your": 1847,
      "Ġopened": 1848,
      "Ġthemselves": 1849,
      "ulture": 1850,
      "Ġregion": 1851,
      "Ġ000": 1852,
      "Ġwhether": 1853,
      "Ġequ": 1854,
      "Ġreceived": 1855,
      "cha": 1856,
      "Ġbuilding": 1857,
      "Ġsil": 1858,
      "Ġneeded": 1859,
      "ledge": 1860,
      "Ġhistory": 1861,
      "Ġstates": 1862,
      "Ġparticip": 1863,
      "ission": 1864,
      "Ġdie": 1865,
      "Ġ13": 1866,
      "show": 1867,
      "Ġredu": 1868,
      "Ġhundred": 1869,
      "Ġcomplete": 1870,
      "Ġdirector": 1871,
      "Ġ17": 1872,
      "ton": 1873,
      "Ġdoctor": 1874,
      "Ġvisit": 1875,
      "app": 1876,
      "Ġpat": 1877,
      "ange": 1878,
      "Ġcompan": 1879,
      "Ġcontrol": 1880,
      "Ġyourself": 1881,
      "work": 1882,
      "Ġless": 1883,
      "eric": 1884,
      "ets": 1885,
      "Ġdeal": 1886,
      "Ġperform": 1887,
      "Ġexpected": 1888,
      "ier": 1889,
      "Ġachie": 1890,
      "Ġpress": 1891,
      "of": 1892,
      "llen": 1893,
      "ins": 1894,
      "Ġprovided": 1895,
      "Ġinvol": 1896,
      "Ġsoci": 1897,
      "Ġreturn": 1898,
      "els": 1899,
      "Ġprovide": 1900,
      "Ġbaby": 1901,
      "Ġcommon": 1902,
      "ids": 1903,
      "ament": 1904,
      "Ġtruth": 1905,
      "gs": 1906,
      "Ġstru": 1907,
      "Ġcost": 1908,
      "vir": 1909,
      "Ġeverything": 1910,
      "Ġopp": 1911,
      "Ġpolitical": 1912,
      "tod": 1913,
      "Ġ25": 1914,
      "Ġserver": 1915,
      "Ġlab": 1916,
      "Ġtreatment": 1917,
      "today": 1918,
      "Ġalone": 1919,
      "Ġleave": 1920,
      "Ġaddition": 1921,
      "Ġdefault": 1922,
      "Ġdirect": 1923,
      "Ġsal": 1924,
      "Ġaut": 1925,
      "Ġshare": 1926,
      "Ġsite": 1927,
      "Ġagric": 1928,
      "Ġtarget": 1929,
      "ches": 1930,
      "Ġcapt": 1931,
      "Ġsett": 1932,
      "Ġanyone": 1933,
      "asing": 1934,
      "Ġhot": 1935,
      "Ġappear": 1936,
      "Ġpay": 1937,
      "Ġnet": 1938,
      "add": 1939,
      "Ġchallen": 1940,
      "Ġways": 1941,
      "Ġcertain": 1942,
      "Ġlived": 1943,
      "Ġbeaut": 1944,
      "ulation": 1945,
      "Ġknowledge": 1946,
      "Ġlost": 1947,
      "Ġur": 1948,
      "Ġnations": 1949,
      "Ġmoses": 1950,
      "ilar": 1951,
      "Ġdesign": 1952,
      "Ġhalf": 1953,
      "ider": 1954,
      "mon": 1955,
      "ows": 1956,
      "ec": 1957,
      "Ġweak": 1958,
      "cannot": 1959,
      "Ġminister": 1960,
      "Ġrules": 1961,
      "Ġdiscuss": 1962,
      "vent": 1963,
      "word": 1964,
      "Ġtown": 1965,
      "Ġdisease": 1966,
      "Ġexpl": 1967,
      "Ġcompleted": 1968,
      "Ġtable": 1969,
      "Ġap": 1970,
      "Ġstren": 1971,
      "ilities": 1972,
      "co": 1973,
      "gn": 1974,
      "yle": 1975,
      "Ġlink": 1976,
      "ump": 1977,
      "Ġconsum": 1978,
      "Ġdestro": 1979,
      "Ġelection": 1980,
      "amed": 1981,
      "Ġarticle": 1982,
      "Ġori": 1983,
      "Ġprin": 1984,
      "Ġsafe": 1985,
      "Ġquestions": 1986,
      "Ġestablished": 1987,
      "Ġprivate": 1988,
      "Ġill": 1989,
      "istan": 1990,
      "ience": 1991,
      "Ġener": 1992,
      "Ġ0": 1993,
      "Ġtoward": 1994,
      "ds": 1995,
      "Ġsea": 1996,
      "Ġdocument": 1997,
      "Ġclub": 1998,
      "Ġdestroy": 1999,
      "Ġrate": 2000,
      "Ġcompanies": 2001,
      "ob": 2002,
      "raid": 2003,
      "Ġstudents": 2004,
      "Ġmaking": 2005,
      "Ġhon": 2006,
      "Ġhous": 2007,
      "Ġafraid": 2008,
      "Ġtal": 2009,
      "Ġsun": 2010,
      "av": 2011,
      "Ġbad": 2012,
      "itution": 2013,
      "ask": 2014,
      "Ġtyp": 2015,
      "Ġnation": 2016,
      "Ġevil": 2017,
      "Ġsouth": 2018,
      "Ġsize": 2019,
      "eous": 2020,
      "Ġcomput": 2021,
      "Ġfailed": 2022,
      "Ġdelet": 2023,
      "Ġparts": 2024,
      "Ġfathers": 2025,
      "Ġreached": 2026,
      "Ġforth": 2027,
      "Ġsound": 2028,
      "Ġfight": 2029,
      "Ġlim": 2030,
      "ials": 2031,
      "che": 2032,
      "Ġindian": 2033,
      "Ġbirth": 2034,
      "viron": 2035,
      "Ġriver": 2036,
      "Ġopportunity": 2037,
      "Ġabove": 2038,
      "ailed": 2039,
      "Ġinstall": 2040,
      "Ġenem": 2041,
      "Ġbless": 2042,
      "Ġenergy": 2043,
      "Ġeconomic": 2044,
      "Ġmil": 2045,
      "cre": 2046,
      "Ġleaders": 2047,
      "Ġpurpose": 2048,
      "Ġsociety": 2049,
      "Ġut": 2050,
      "sol": 2051,
      "Ġfaith": 2052,
      "Ġenviron": 2053,
      "Ġvir": 2054,
      "Ġsuff": 2055,
      "Ġprophe": 2056,
      "Ġcondu": 2057,
      "Ġhig": 2058,
      "Ġpan": 2059,
      "Ġfourth": 2060,
      "vert": 2061,
      "Ġdepart": 2062,
      "Ġnat": 2063,
      "Ġpublished": 2064,
      "Ġrev": 2065,
      "ances": 2066,
      "Ġkill": 2067,
      "Ġresour": 2068,
      "Ġremain": 2069,
      "iqu": 2070,
      "aper": 2071,
      "Ġestim": 2072,
      "Ġindustry": 2073,
      "aim": 2074,
      "Ġrelations": 2075,
      "Ġweeks": 2076,
      "Ġopt": 2077,
      "ects": 2078,
      "Ġenvironment": 2079,
      "Ġaccept": 2080,
      "Ġsimple": 2081,
      "gun": 2082,
      "ued": 2083,
      "vi": 2084,
      "Ġservant": 2085,
      "Ġconstruction": 2086,
      "Ġcommun": 2087,
      "rect": 2088,
      "Ġkingdom": 2089,
      "Ġlisten": 2090,
      "Ġspend": 2091,
      "ral": 2092,
      "itive": 2093,
      "Ġcommunity": 2094,
      "Ġtraining": 2095,
      "ese": 2096,
      "idered": 2097,
      "Ġservants": 2098,
      "Ġadded": 2099,
      "Ġdepend": 2100,
      "Ġasse": 2101,
      "Ġsuccessful": 2102,
      "itions": 2103,
      "urther": 2104,
      "Ġfru": 2105,
      "Ġminutes": 2106,
      "band": 2107,
      "den": 2108,
      "ential": 2109,
      "elt": 2110,
      "Ġpath": 2111,
      "right": 2112,
      "Ġcut": 2113,
      "Ġeu": 2114,
      "sibility": 2115,
      "ying": 2116,
      "Ġphys": 2117,
      "Ġprepared": 2118,
      "urity": 2119,
      "Ġspent": 2120,
      "Ġconsidered": 2121,
      "Ġfamil": 2122,
      "Ġmor": 2123,
      "Ġincident": 2124,
      "Ġdate": 2125,
      "ones": 2126,
      "ians": 2127,
      "Ġhus": 2128,
      "Ġload": 2129,
      "Ġrequired": 2130,
      "oss": 2131,
      "whether": 2132,
      "Ġhold": 2133,
      "oura": 2134,
      "ories": 2135,
      "land": 2136,
      "Ġarm": 2137,
      "Ġpoor": 2138,
      "Ġoil": 2139,
      "Ġremember": 2140,
      "Ġameric": 2141,
      "Ġpersonal": 2142,
      "Ġpassed": 2143,
      "umb": 2144,
      "Ġoften": 2145,
      "Ġdifference": 2146,
      "Ġfelt": 2147,
      "Ġconfig": 2148,
      "Ġrequest": 2149,
      "Ġlow": 2150,
      "Ġhor": 2151,
      "Ġsomeone": 2152,
      "Ġplayers": 2153,
      "Ġcharact": 2154,
      "Ġtrade": 2155,
      "Ġattack": 2156,
      "Ġfunction": 2157,
      "Ġeight": 2158,
      "Ġport": 2159,
      "Ġsevent": 2160,
      "Ġaccess": 2161,
      "Ġrunning": 2162,
      "Ġwalk": 2163,
      "Ġunited": 2164,
      "Ġtemple": 2165,
      "put": 2166,
      "Ġreturned": 2167,
      "more": 2168,
      "Ġbutton": 2169,
      "outh": 2170,
      "Ġmatch": 2171,
      "Ġsource": 2172,
      "hab": 2173,
      "Ġdial": 2174,
      "unable": 2175,
      "Ġcapital": 2176,
      "Ġlif": 2177,
      "Ġproducts": 2178,
      "ology": 2179,
      "Ġtab": 2180,
      "Ġcreat": 2181,
      "por": 2182,
      "Ġident": 2183,
      "Ġincreasing": 2184,
      "Ġsold": 2185,
      "ails": 2186,
      "Ġgrowth": 2187,
      "medi": 2188,
      "80": 2189,
      "ards": 2190,
      "Ġagreement": 2191,
      "ling": 2192,
      "Ġrespect": 2193,
      "Ġisn": 2194,
      "road": 2195,
      "Ġ21": 2196,
      "Ġhusband": 2197,
      "Ġrs": 2198,
      "Ġlooked": 2199,
      "Ġlearned": 2200,
      "riage": 2201,
      "Ġsepar": 2202,
      "Ġfinan": 2203,
      "Ġinvolved": 2204,
      "Ġexce": 2205,
      "istr": 2206,
      "Ġhouses": 2207,
      "Ġfoc": 2208,
      "Ġcell": 2209,
      "Ġpract": 2210,
      "Ġelse": 2211,
      "Ġten": 2212,
      "Ġled": 2213,
      "uly": 2214,
      "empt": 2215,
      "people": 2216,
      "Ġ50": 2217,
      "Ġrelig": 2218,
      "mes": 2219,
      "Ġwish": 2220,
      "Ġvi": 2221,
      "uge": 2222,
      "wo": 2223,
      "Ġsubject": 2224,
      "Ġwall": 2225,
      "Ġtree": 2226,
      "Ġcoun": 2227,
      "ots": 2228,
      "Ġarmy": 2229,
      "please": 2230,
      "Ġdialog": 2231,
      "pro": 2232,
      "Ġclick": 2233,
      "yahweh": 2234,
      "umn": 2235,
      "uck": 2236,
      "Ġbread": 2237,
      "Ġsex": 2238,
      "Ġcommanded": 2239,
      "change": 2240,
      "Ġstood": 2241,
      "Ġdisci": 2242,
      "Ġaward": 2243,
      "Ġnames": 2244,
      "Ġcomputer": 2245,
      "Ġpict": 2246,
      "imum": 2247,
      "Ġturn": 2248,
      "Ġgone": 2249,
      "Ġforward": 2250,
      "anger": 2251,
      "icked": 2252,
      "Ġuseful": 2253,
      "gation": 2254,
      "book": 2255,
      "akistan": 2256,
      "Ġmetho": 2257,
      "ern": 2258,
      "Ġshown": 2259,
      "Ġamount": 2260,
      "Ġseek": 2261,
      "Ġenough": 2262,
      "Ġ40": 2263,
      "Ġdra": 2264,
      "Ġusers": 2265,
      "enced": 2266,
      "Ġapplication": 2267,
      "Ġstyle": 2268,
      "Ġsug": 2269,
      "Ġord": 2270,
      "Ġsecurity": 2271,
      "Ġconduct": 2272,
      "Ġthus": 2273,
      "Ġdecl": 2274,
      "fr": 2275,
      "lled": 2276,
      "Ġdemo": 2277,
      "Ġcommittee": 2278,
      "know": 2279,
      "Ġmouth": 2280,
      "Ġposition": 2281,
      "Ġwatch": 2282,
      "Ġmoment": 2283,
      "Ġsan": 2284,
      "ator": 2285,
      "uration": 2286,
      "Ġsky": 2287,
      "Ġairport": 2288,
      "with": 2289,
      "Ġbord": 2290,
      "Ġnamed": 2291,
      "Ġexpress": 2292,
      "Ġorigin": 2293,
      "Ġonce": 2294,
      "don": 2295,
      "Ġprint": 2296,
      "Ġpassword": 2297,
      "Ġassemb": 2298,
      "Ġmer": 2299,
      "Ġinj": 2300,
      "Ġclean": 2301,
      "Ġinit": 2302,
      "Ġmanag": 2303,
      "tar": 2304,
      "rew": 2305,
      "Ġimprove": 2306,
      "over": 2307,
      "pped": 2308,
      "Ġtax": 2309,
      "Ġadmin": 2310,
      "Ġdou": 2311,
      "Ġreading": 2312,
      "Ġ24": 2313,
      "Ġexec": 2314,
      "Ġmedic": 2315,
      "bers": 2316,
      "Ġfif": 2317,
      "Ġleg": 2318,
      "cially": 2319,
      "Ġdescri": 2320,
      "kt": 2321,
      "Ġsam": 2322,
      "aster": 2323,
      "Ġincluding": 2324,
      "Ġdemoc": 2325,
      "Ġphil": 2326,
      "Ġfurther": 2327,
      "cap": 2328,
      "hn": 2329,
      "iful": 2330,
      "Ġrighteous": 2331,
      "Ġrelated": 2332,
      "Ġactivities": 2333,
      "Ġpha": 2334,
      "Ġdaughters": 2335,
      "Ġeuro": 2336,
      "mal": 2337,
      "sh": 2338,
      "Ġtit": 2339,
      "Ġcondition": 2340,
      "Ġgroups": 2341,
      "Ġaction": 2342,
      "Ġdistrict": 2343,
      "Ġground": 2344,
      "Ġcompetition": 2345,
      "Ġmarriage": 2346,
      "Ġenjo": 2347,
      "ban": 2348,
      "omes": 2349,
      "ury": 2350,
      "Ġscri": 2351,
      "Ġturned": 2352,
      "Ġfactor": 2353,
      "Ġcolumn": 2354,
      "Ġcolle": 2355,
      "Ġidea": 2356,
      "itiz": 2357,
      "Ġschools": 2358,
      "Ġestimated": 2359,
      "Ġalong": 2360,
      "bed": 2361,
      "Ġeffective": 2362,
      "Ġsongs": 2363,
      "Ġoccurred": 2364,
      "ney": 2365,
      "Ġinternet": 2366,
      "enty": 2367,
      "ency": 2368,
      "Ġforest": 2369,
      "ultural": 2370,
      "Ġcareer": 2371,
      "Ġprison": 2372,
      "Ġsoul": 2373,
      "Ġsaved": 2374,
      "Ġconnect": 2375,
      "Ġmakes": 2376,
      "gle": 2377,
      "hile": 2378,
      "Ġimpact": 2379,
      "Ġabroad": 2380,
      "Ġdeveloped": 2381,
      "Ġvers": 2382,
      "Ġedit": 2383,
      "val": 2384,
      "while": 2385,
      "Ġdeb": 2386,
      "Ġpray": 2387,
      "cing": 2388,
      "Ġdam": 2389,
      "mandu": 2390,
      "Ġkids": 2391,
      "ground": 2392,
      "Ġimmedi": 2393,
      "athmandu": 2394,
      "Ġdig": 2395,
      "?\"": 2396,
      "Ġwid": 2397,
      "Ġsell": 2398,
      "Ġprogress": 2399,
      "Ġkept": 2400,
      "two": 2401,
      "ointed": 2402,
      "pa": 2403,
      "Ġregard": 2404,
      "Ġmember": 2405,
      "...": 2406,
      "Ġwants": 2407,
      "Ġremo": 2408,
      "Ġgetting": 2409,
      "Ġconfir": 2410,
      "Ġcorrect": 2411,
      "Ġbasis": 2412,
      "Ġrupe": 2413,
      "Ġfinal": 2414,
      "Ġenglish": 2415,
      "Ġscreen": 2416,
      "imes": 2417,
      "ogra": 2418,
      "ws": 2419,
      "Ġwild": 2420,
      "Ġga": 2421,
      "Ġconsider": 2422,
      "itted": 2423,
      "dis": 2424,
      "itud": 2425,
      "Ġdom": 2426,
      "soci": 2427,
      "Ġmyself": 2428,
      "Ġsecret": 2429,
      "omat": 2430,
      "Ġchoose": 2431,
      "ulf": 2432,
      "Ġdistribut": 2433,
      "Ġmessages": 2434,
      "Ġallowed": 2435,
      "Ġfal": 2436,
      "Ġcitiz": 2437,
      "Ġdoll": 2438,
      "Ġremove": 2439,
      "Ġwhose": 2440,
      "Ġbox": 2441,
      "Ġ22": 2442,
      "ped": 2443,
      "Ġpakistan": 2444,
      "Ġlack": 2445,
      "Ġregular": 2446,
      "ock": 2447,
      "Ġyes": 2448,
      "Ġexc": 2449,
      "Ġperm": 2450,
      "Ġmountain": 2451,
      "Ġrelationship": 2452,
      "Ġrupees": 2453,
      "ently": 2454,
      "Ġ100": 2455,
      "Ġentire": 2456,
      "Ġconnection": 2457,
      "ham": 2458,
      "have": 2459,
      "ross": 2460,
      "ken": 2461,
      "nal": 2462,
      "Ġess": 2463,
      "Ġfilms": 2464,
      "Ġmail": 2465,
      "Ġpack": 2466,
      "Ġmode": 2467,
      "Ġbreak": 2468,
      "Ġtypes": 2469,
      "Ġadministr": 2470,
      "Ġeurope": 2471,
      "hu": 2472,
      "oh": 2473,
      "Ġones": 2474,
      "Ġinvestment": 2475,
      "hood": 2476,
      "Ġsettings": 2477,
      "hind": 2478,
      "Ġnon": 2479,
      "lection": 2480,
      "ead": 2481,
      "Ġmeas": 2482,
      "Ġserious": 2483,
      "Ġprogramme": 2484,
      "attle": 2485,
      "ship": 2486,
      "than": 2487,
      "Ġinside": 2488,
      "Ġspoken": 2489,
      "Ġrisk": 2490,
      "tain": 2491,
      "liament": 2492,
      "Ġthroughout": 2493,
      "Ġlocation": 2494,
      "iding": 2495,
      "Ġelectric": 2496,
      "bar": 2497,
      "ffe": 2498,
      "opy": 2499,
      "Ġmeaning": 2500,
      "Ġanimals": 2501,
      "Ġarrest": 2502,
      "Ġmanage": 2503,
      "Ġcontinue": 2504,
      "Ġassoci": 2505,
      "Ġdwell": 2506,
      "india": 2507,
      "Ġexpect": 2508,
      "Ġfamilies": 2509,
      "Ġreach": 2510,
      "Ġtechnology": 2511,
      "also": 2512,
      "Ġcook": 2513,
      "Ġprogrammes": 2514,
      "Ġdevice": 2515,
      "'ll": 2516,
      "Ġaware": 2517,
      "Ġgoal": 2518,
      "rem": 2519,
      "Ġreceive": 2520,
      "Ġdeterm": 2521,
      "Ġglory": 2522,
      "Ġnatural": 2523,
      "Ġfinancial": 2524,
      "Ġwebs": 2525,
      "Ġplayer": 2526,
      "Ġearly": 2527,
      "Ġfollowed": 2528,
      "Ġsword": 2529,
      "rop": 2530,
      "Ġsuffer": 2531,
      "Ġmater": 2532,
      "Ġoptions": 2533,
      "Ġviol": 2534,
      "Ġdi": 2535,
      "Ġbehind": 2536,
      "thus": 2537,
      "Ġpopulation": 2538,
      "Ġseventh": 2539,
      "Ġquality": 2540,
      "create": 2541,
      "air": 2542,
      "Ġic": 2543,
      "Ġtou": 2544,
      "Ġrights": 2545,
      "ats": 2546,
      "Ġdecided": 2547,
      "Ġforever": 2548,
      "Ġchief": 2549,
      "ought": 2550,
      "thered": 2551,
      "Ġ26": 2552,
      "Ġtaught": 2553,
      "mar": 2554,
      "ser": 2555,
      "Ġyouth": 2556,
      "Ġcarried": 2557,
      "Ġgirl": 2558,
      "Ġbal": 2559,
      "Ġhowever": 2560,
      "Ġraised": 2561,
      "Ġbeautiful": 2562,
      "Ġseed": 2563,
      "Ġter": 2564,
      "arm": 2565,
      "Ġkings": 2566,
      "Ġcourse": 2567,
      "Ġassist": 2568,
      "reed": 2569,
      "Ġdanger": 2570,
      "Ġflow": 2571,
      "Ġimplemented": 2572,
      "Ġlanguages": 2573,
      "Ġcast": 2574,
      "Ġmist": 2575,
      "Ġmention": 2576,
      "aled": 2577,
      "Ġhill": 2578,
      "Ġ23": 2579,
      "Ġprice": 2580,
      "Ġprior": 2581,
      "Ġpopular": 2582,
      "fort": 2583,
      "Ġrepl": 2584,
      "ully": 2585,
      "ze": 2586,
      "otion": 2587,
      "enter": 2588,
      "Ġkathmandu": 2589,
      "Ġarri": 2590,
      "uary": 2591,
      "Ġpriests": 2592,
      "acob": 2593,
      "Ġempt": 2594,
      "Ġminist": 2595,
      "Ġteaching": 2596,
      "Ġspread": 2597,
      "Ġtele": 2598,
      "Ġtrust": 2599,
      "Ġserve": 2600,
      "Ġsingle": 2601,
      "Ġachieve": 2602,
      "Ġhotel": 2603,
      "Ġloss": 2604,
      "Ġrule": 2605,
      "itting": 2606,
      "Ġresources": 2607,
      "Ġweather": 2608,
      "Ġresponsibility": 2609,
      "Ġpie": 2610,
      "Ġlonger": 2611,
      "Ġpropert": 2612,
      "Ġreported": 2613,
      "Ġtradition": 2614,
      "ially": 2615,
      "Ġsuggest": 2616,
      "Ġdirectory": 2617,
      "ye": 2618,
      "Ġincluded": 2619,
      "Ġexport": 2620,
      "Ġgeneral": 2621,
      "Ġtried": 2622,
      "oper": 2623,
      "Ġdece": 2624,
      "room": 2625,
      "Ġsurpr": 2626,
      "Ġstayed": 2627,
      "ees": 2628,
      "only": 2629,
      "Ġsum": 2630,
      "ott": 2631,
      "Ġlaun": 2632,
      "known": 2633,
      "ring": 2634,
      "Ġhur": 2635,
      "Ġspace": 2636,
      "Ġattempt": 2637,
      "Ġnorth": 2638,
      "Ġannoun": 2639,
      "bes": 2640,
      "bal": 2641,
      "Ġstre": 2642,
      "Ġ28": 2643,
      "move": 2644,
      "ising": 2645,
      "Ġletter": 2646,
      "Ġsimilar": 2647,
      "during": 2648,
      "lon": 2649,
      "Ġdark": 2650,
      "Ġdemand": 2651,
      "iday": 2652,
      "Ġlargest": 2653,
      "Ġmulti": 2654,
      "Ġplans": 2655,
      "Ġclaim": 2656,
      "cked": 2657,
      "Ġquite": 2658,
      "Ġnepali": 2659,
      "Ġsle": 2660,
      "Ġcry": 2661,
      "Ġstrength": 2662,
      "Ġrecently": 2663,
      "Ġseason": 2664,
      "Ġleast": 2665,
      "behold": 2666,
      "Ġtaking": 2667,
      "à¥": 2668,
      "Ġpra": 2669,
      "did": 2670,
      "pre": 2671,
      "Ġstri": 2672,
      "Ġthinking": 2673,
      "lu": 2674,
      "Ġthr": 2675,
      "'d": 2676,
      "Ġnone": 2677,
      "Ġplant": 2678,
      "Ġfulf": 2679,
      "board": 2680,
      "ĠÃ¢": 2681,
      "Ġstage": 2682,
      "Ġ197": 2683,
      "Ġpolitics": 2684,
      "Ġgerm": 2685,
      "ients": 2686,
      "inal": 2687,
      "Ġpot": 2688,
      "Ġmap": 2689,
      "pecially": 2690,
      "Ġgrad": 2691,
      "Ġsupported": 2692,
      "Ġsides": 2693,
      "Ġneigh": 2694,
      "Ġdeli": 2695,
      "Ġarr": 2696,
      "Ġassembly": 2697,
      "Ġactually": 2698,
      "Ġfruit": 2699,
      "even": 2700,
      "sc": 2701,
      "ift": 2702,
      "Ġuncle": 2703,
      "cks": 2704,
      "Ġrain": 2705,
      "Ġnature": 2706,
      "Ġbuy": 2707,
      "Ġgives": 2708,
      "Ġresponsible": 2709,
      "Ġspecific": 2710,
      "Ġsteps": 2711,
      "Ġempty": 2712,
      "Ġaud": 2713,
      "Ġseems": 2714,
      "Ġbelow": 2715,
      "fully": 2716,
      "orrow": 2717,
      "Ġtravel": 2718,
      "Ġmoved": 2719,
      "Ġformat": 2720,
      "Ġcaused": 2721,
      "Ġimmediately": 2722,
      "Ġcir": 2723,
      "uses": 2724,
      "gu": 2725,
      "Ġran": 2726,
      "Ġrad": 2727,
      "Ġworkers": 2728,
      "Ġnetwork": 2729,
      "Ġborder": 2730,
      "Ġmag": 2731,
      "wr": 2732,
      "Ġfund": 2733,
      "Ġweb": 2734,
      "Ġange": 2735,
      "Ġvict": 2736,
      "cal": 2737,
      "Ġsaul": 2738,
      "Ġjews": 2739,
      "Ġid": 2740,
      "Ġdraw": 2741,
      "Ġselection": 2742,
      "Ġdivided": 2743,
      "may": 2744,
      "Ġswe": 2745,
      "Ġworth": 2746,
      "Ġworried": 2747,
      "Ġboard": 2748,
      "Ġapply": 2749,
      "Ġhealthy": 2750,
      "Ġministry": 2751,
      "itude": 2752,
      "Ġsacri": 2753,
      "Ġentered": 2754,
      "Ġgathered": 2755,
      "ium": 2756,
      "Ġfix": 2757,
      "Ġenjoy": 2758,
      "Ġsacrif": 2759,
      "cl": 2760,
      "failed": 2761,
      "Ġscient": 2762,
      "Ġfarmers": 2763,
      "Ġimages": 2764,
      "head": 2765,
      "Ġcou": 2766,
      "aron": 2767,
      "Ġwhite": 2768,
      "abled": 2769,
      "Ġformed": 2770,
      "Ġjourney": 2771,
      "na": 2772,
      "Ġaw": 2773,
      "Ġred": 2774,
      "Ġneg": 2775,
      "Ġvalid": 2776,
      "save": 2777,
      "Ġfront": 2778,
      "Ġcontent": 2779,
      "Ġteachers": 2780,
      "just": 2781,
      "Ġparliament": 2782,
      "dle": 2783,
      "Ġwed": 2784,
      "Ġpet": 2785,
      "Ġitems": 2786,
      "Ġalmost": 2787,
      "Ġaccident": 2788,
      "Ġstruck": 2789,
      "Ġcharacter": 2790,
      "Ġden": 2791,
      "Ġnine": 2792,
      "Ġlog": 2793,
      "itable": 2794,
      "rences": 2795,
      "Ġdisciples": 2796,
      "Ġsight": 2797,
      "Ġplu": 2798,
      "Ġlikely": 2799,
      "ructure": 2800,
      "idence": 2801,
      "Ġjan": 2802,
      "lier": 2803,
      "Ġnormal": 2804,
      "era": 2805,
      "Ġmob": 2806,
      "Ġfav": 2807,
      "Ġfeet": 2808,
      "Ġoperation": 2809,
      "Ġmorning": 2810,
      "Ġwide": 2811,
      "open": 2812,
      "Ġram": 2813,
      "Ġshot": 2814,
      "Ġsigned": 2815,
      "from": 2816,
      "Ġwebsite": 2817,
      "Ġtent": 2818,
      "Ġcouldn": 2819,
      "Ġcooper": 2820,
      "ogn": 2821,
      "Ġpleased": 2822,
      "abase": 2823,
      "Ġ196": 2824,
      "Ġpoints": 2825,
      "Ġmal": 2826,
      "igure": 2827,
      "Ġexists": 2828,
      "roud": 2829,
      "Ġissues": 2830,
      "vation": 2831,
      "Ġmur": 2832,
      "ush": 2833,
      "Ġconnected": 2834,
      "Ġeconomy": 2835,
      "Ġemail": 2836,
      "Ġinternational": 2837,
      "Ġdollars": 2838,
      "Ġprovince": 2839,
      "Ġinvestig": 2840,
      "nep": 2841,
      "Ġ27": 2842,
      "ktop": 2843,
      "racy": 2844,
      "Ġpaper": 2845,
      "Ġhuge": 2846,
      "Ġcele": 2847,
      "cho": 2848,
      "Ġaltar": 2849,
      "ode": 2850,
      "Ġgoes": 2851,
      "akh": 2852,
      "pri": 2853,
      "Ġhelped": 2854,
      "Ġspecified": 2855,
      "nepal": 2856,
      "ib": 2857,
      "Ġmiss": 2858,
      "Ġet": 2859,
      "Ġshared": 2860,
      "Ġtwenty": 2861,
      "Ġuni": 2862,
      "Ġprepar": 2863,
      "Ġfacilities": 2864,
      "Ġarrested": 2865,
      "Ġproper": 2866,
      "Ġwicked": 2867,
      "itch": 2868,
      "Ġattention": 2869,
      "ades": 2870,
      "ival": 2871,
      "Ġversion": 2872,
      "Ġcelebr": 2873,
      "Ġwis": 2874,
      "Ġproud": 2875,
      "Ġcontain": 2876,
      "Ġmethod": 2877,
      "Ġsus": 2878,
      "Ġbit": 2879,
      "Ġjustice": 2880,
      "Ġprotect": 2881,
      "Ġwal": 2882,
      "Ġincome": 2883,
      "Ġbenefit": 2884,
      "Ġscript": 2885,
      "bab": 2886,
      "uel": 2887,
      "Ġfilter": 2888,
      "ication": 2889,
      "urs": 2890,
      "Ġcongress": 2891,
      "Ġjacob": 2892,
      "Ġappe": 2893,
      "Ġflesh": 2894,
      "Ġinsp": 2895,
      "Ġenemies": 2896,
      "ented": 2897,
      "cious": 2898,
      "Ġcarry": 2899,
      "ternal": 2900,
      "Ġconstitution": 2901,
      "Ġblog": 2902,
      "Ġresults": 2903,
      "Ġamaz": 2904,
      "Ġrelease": 2905,
      "Ġagriculture": 2906,
      "Ġbattle": 2907,
      "Ġeither": 2908,
      "Ġgods": 2909,
      "Ġmodel": 2910,
      "Ġconcerning": 2911,
      "Ġlines": 2912,
      "verse": 2913,
      "come": 2914,
      "ceed": 2915,
      "Ġlea": 2916,
      "Ġchance": 2917,
      "Ġmountains": 2918,
      "Ġphoto": 2919,
      "Ġonline": 2920,
      "Ġaccom": 2921,
      "Ġacross": 2922,
      "itness": 2923,
      "Ġmr": 2924,
      "Ġaffected": 2925,
      "ussia": 2926,
      "god": 2927,
      "la": 2928,
      "Ġdru": 2929,
      "aged": 2930,
      "spe": 2931,
      "Ġsession": 2932,
      "ung": 2933,
      "Ġserved": 2934,
      "mber": 2935,
      "Ġmot": 2936,
      "china": 2937,
      "Ġtakes": 2938,
      "men": 2939,
      "those": 2940,
      "Ġdut": 2941,
      "Ġbackground": 2942,
      "Ġplugin": 2943,
      "sure": 2944,
      "since": 2945,
      "Ġnumbers": 2946,
      "ensive": 2947,
      "pol": 2948,
      "Ġgate": 2949,
      "Ġevents": 2950,
      "Ġtalking": 2951,
      "Ġespecially": 2952,
      "da": 2953,
      "Ġaaron": 2954,
      "oting": 2955,
      "Ġvalues": 2956,
      "Ġinterested": 2957,
      "Ġhigher": 2958,
      "Ġcollege": 2959,
      "Ġfest": 2960,
      "Ġplanning": 2961,
      "Ġrequire": 2962,
      "Ġeffects": 2963,
      "Ġseem": 2964,
      "everyone": 2965,
      "Ġtwe": 2966,
      "Ġeye": 2967,
      "Ġhy": 2968,
      "ari": 2969,
      "Ġlen": 2970,
      "Ġdoor": 2971,
      "Ġexact": 2972,
      "Ġmoving": 2973,
      "Ġnovel": 2974,
      "Ġwaiting": 2975,
      "Ġtitle": 2976,
      "Ġefforts": 2977,
      "Ġdatabase": 2978,
      "Ġdelete": 2979,
      "Ġconfiguration": 2980,
      "Ġ29": 2981,
      "Ġfell": 2982,
      "Ġrecogn": 2983,
      "Ġdetails": 2984,
      "Ġorganization": 2985,
      "Ġfilled": 2986,
      "Ġeast": 2987,
      "Ġscience": 2988,
      "Ġirri": 2989,
      "Ġeld": 2990,
      "Ġjoy": 2991,
      "Ġdownload": 2992,
      "Ġblack": 2993,
      "Ġconducted": 2994,
      "wise": 2995,
      "ises": 2996,
      "acity": 2997,
      "Ġjohn": 2998,
      "Ġprime": 2999,
      "Ġthoughts": 3000,
      "Ġtask": 3001,
      "Ġstories": 3002,
      "Ġdesktop": 3003,
      "Ġtransl": 3004,
      "Ġreign": 3005,
      "Ġitem": 3006,
      "Ġbusy": 3007,
      "Ġetc": 3008,
      "jesus": 3009,
      "ery": 3010,
      "Ġself": 3011,
      "Ġgreater": 3012,
      "Ġfocus": 3013,
      "fer": 3014,
      "wh": 3015,
      "Ġsoft": 3016,
      "Ġrepres": 3017,
      "Ġspeaking": 3018,
      "Ġphysical": 3019,
      "Ġworship": 3020,
      "Ġparties": 3021,
      "Ġwait": 3022,
      "ires": 3023,
      "face": 3024,
      "Ġrural": 3025,
      "sa": 3026,
      "Ġfish": 3027,
      "Ġhost": 3028,
      "Ġremoved": 3029,
      "Ġge": 3030,
      "though": 3031,
      "Ġexpand": 3032,
      "although": 3033,
      "Ġtransport": 3034,
      "Ġconcerned": 3035,
      "ron": 3036,
      "Ġcontribut": 3037,
      "Ġlots": 3038,
      "Ġstopped": 3039,
      "Ġgoods": 3040,
      "Ġsad": 3041,
      "Ġcup": 3042,
      "Ġculture": 3043,
      "ences": 3044,
      "Ġupon": 3045,
      "Ġprim": 3046,
      "Ġcrit": 3047,
      "Ġsilver": 3048,
      "Ġpoet": 3049,
      "Ġsupply": 3050,
      "ding": 3051,
      "Ġinher": 3052,
      "Ġnote": 3053,
      "omatically": 3054,
      "Ġsusp": 3055,
      "cil": 3056,
      "hest": 3057,
      "Ġpun": 3058,
      "utions": 3059,
      "Ġmiddle": 3060,
      "Ġdan": 3061,
      "Ġcoven": 3062,
      "Ġvirus": 3063,
      "Ġdemocracy": 3064,
      ".'": 3065,
      "50": 3066,
      "Ġglo": 3067,
      "Ġstudies": 3068,
      "Ġchur": 3069,
      "sim": 3070,
      "tr": 3071,
      "isf": 3072,
      "Ġperf": 3073,
      "Ġmemory": 3074,
      "Ġjournal": 3075,
      "key": 3076,
      "Ġdisapp": 3077,
      "Ġflood": 3078,
      "Ġstatus": 3079,
      "Ġfast": 3080,
      "acy": 3081,
      "Ġ2076": 3082,
      "Ġaffect": 3083,
      "Ġcovenant": 3084,
      "sha": 3085,
      "Ġcover": 3086,
      "Ġtrip": 3087,
      "Ġmentioned": 3088,
      "ank": 3089,
      "ension": 3090,
      "Ġtreated": 3091,
      "lick": 3092,
      "Ġprograms": 3093,
      "Ġmidst": 3094,
      "Ġrise": 3095,
      "Ġdirection": 3096,
      "Ġemployment": 3097,
      "icles": 3098,
      "Ġtrump": 3099,
      "Ġpositive": 3100,
      "Ġarmies": 3101,
      "aign": 3102,
      "Ġreven": 3103,
      "Ġthousands": 3104,
      "Ġburnt": 3105,
      "Ġpressure": 3106,
      "Ġagricultural": 3107,
      "Ġment": 3108,
      "Ġcommission": 3109,
      "Ġdecades": 3110,
      "Ġcommitted": 3111,
      "Ġcampaign": 3112,
      "ax": 3113,
      "nel": 3114,
      "Ġcenter": 3115,
      "Ġmarch": 3116,
      "inese": 3117,
      "Ġmanagement": 3118,
      "ici": 3119,
      "othing": 3120,
      "Ġ2071": 3121,
      "Ġpleas": 3122,
      "Ġconstruct": 3123,
      "isions": 3124,
      "itary": 3125,
      "Ġ2075": 3126,
      "Ġmenu": 3127,
      "Ġwonder": 3128,
      "Ġterms": 3129,
      "mark": 3130,
      "Ġwitness": 3131,
      "Ġsignific": 3132,
      "Ġkeys": 3133,
      "Ġconcern": 3134,
      "Ġpreviously": 3135,
      "view": 3136,
      "Ġsched": 3137,
      "Ġinstead": 3138,
      "Ġlayer": 3139,
      "Ġirrigation": 3140,
      "Ġaren": 3141,
      "Ġhelps": 3142,
      "Ġ2078": 3143,
      "Ġshows": 3144,
      "Ġmovement": 3145,
      "Ġpicture": 3146,
      "was": 3147,
      "Ġbrid": 3148,
      "Ġlocated": 3149,
      "Ġcustomers": 3150,
      "Ġinherit": 3151,
      "light": 3152,
      "Ġwise": 3153,
      "Ġalloc": 3154,
      "Ġwriter": 3155,
      "bered": 3156,
      "Ġartist": 3157,
      "Ġinteresting": 3158,
      "Ġcitizens": 3159,
      "Ġsleep": 3160,
      "oud": 3161,
      "ification": 3162,
      "Ġclothe": 3163,
      "Ġstrug": 3164,
      "ference": 3165,
      "conf": 3166,
      "Ġposs": 3167,
      "Ġtrave": 3168,
      "Ġreduced": 3169,
      "Ġcard": 3170,
      "Ġcub": 3171,
      "olution": 3172,
      "endit": 3173,
      "Ġcompared": 3174,
      "Ġlength": 3175,
      "Ġcases": 3176,
      "Ġitself": 3177,
      "Ġ2016": 3178,
      "Ġbiggest": 3179,
      "Ġessential": 3180,
      "click": 3181,
      "sy": 3182,
      "Ġbill": 3183,
      "Ġ2077": 3184,
      "Ġeasily": 3185,
      "Ġhonor": 3186,
      "Ġbear": 3187,
      "Ġrich": 3188,
      "Ġcontains": 3189,
      "Ġinstit": 3190,
      "Ġdriver": 3191,
      "Ġannounced": 3192,
      "lies": 3193,
      "Ġexpendit": 3194,
      "Ġdesire": 3195,
      "Ġinclude": 3196,
      "Ġunderstanding": 3197,
      "Ġemployees": 3198,
      "rial": 3199,
      "ffic": 3200,
      "Ġ2073": 3201,
      "Ġexisting": 3202,
      "Ġboy": 3203,
      "aly": 3204,
      "Ġbott": 3205,
      "osing": 3206,
      "Ġreve": 3207,
      "Ġcommer": 3208,
      "Ġquick": 3209,
      "Ġinflu": 3210,
      "Ġfacebook": 3211,
      "Ġwaters": 3212,
      "check": 3213,
      "Ġutil": 3214,
      "Ġwood": 3215,
      "Ġmedical": 3216,
      "Ġteams": 3217,
      "sp": 3218,
      "Ġhol": 3219,
      "oke": 3220,
      "Ġjudge": 3221,
      "Ġbabylon": 3222,
      "ners": 3223,
      "Ġlaid": 3224,
      "Ġmax": 3225,
      "Ġ90": 3226,
      "Ġdrinking": 3227,
      "!\"": 3228,
      "Ġbeha": 3229,
      "endar": 3230,
      "Ġ2072": 3231,
      "Ġwindows": 3232,
      "Ġcompletely": 3233,
      "erness": 3234,
      "Ġdia": 3235,
      "Ġlev": 3236,
      "Ġ2080": 3237,
      "Ġthank": 3238,
      "Ġdelive": 3239,
      "Ġneighb": 3240,
      "bu": 3241,
      "Ġfine": 3242,
      "Ġhit": 3243,
      "Ġengine": 3244,
      "Ġencoura": 3245,
      "Ġsanct": 3246,
      "name": 3247,
      "itation": 3248,
      "Ġ2070": 3249,
      "sen": 3250,
      "isters": 3251,
      "Ġdestroyed": 3252,
      "aff": 3253,
      "Ġà¤": 3254,
      "omon": 3255,
      "Ġlower": 3256,
      "Ġunknown": 3257,
      "Ġfeed": 3258,
      "Ġ2079": 3259,
      "Ġrecom": 3260,
      "Ġmovies": 3261,
      "Ġescap": 3262,
      "su": 3263,
      "Ġtrou": 3264,
      "Ġjun": 3265,
      "ending": 3266,
      "Ġoffered": 3267,
      "ey": 3268,
      "Ġsister": 3269,
      "itra": 3270,
      "Ġsatisf": 3271,
      "Ġinstalled": 3272,
      "hol": 3273,
      "Ġbanks": 3274,
      "Ġwilderness": 3275,
      "Ġdad": 3276,
      "Ġchinese": 3277,
      "Ġappropri": 3278,
      "Ġveh": 3279,
      "Ġchallenge": 3280,
      "Ġgar": 3281,
      "Ġhasn": 3282,
      "Ġusually": 3283,
      "ability": 3284,
      "Ġimportance": 3285,
      "Ġcolors": 3286,
      "Ġprofession": 3287,
      "cut": 3288,
      "unt": 3289,
      "Ġaside": 3290,
      "ivid": 3291,
      "Ġseeing": 3292,
      "Ġestablish": 3293,
      "Ġdistricts": 3294,
      "Ġmill": 3295,
      "Ġindustrial": 3296,
      "thank": 3297,
      "edit": 3298,
      "Ġsaf": 3299,
      "Ġfrance": 3300,
      "Ġbroken": 3301,
      "Ġparticular": 3302,
      "Ġamerica": 3303,
      "Ġhousehold": 3304,
      "Ġdaily": 3305,
      "Ġrevenue": 3306,
      "Ġwest": 3307,
      "Ġfem": 3308,
      "Ġshut": 3309,
      "Ġfully": 3310,
      "Ġdeliver": 3311,
      "Ġdelivered": 3312,
      "Ġsolution": 3313,
      "Ġjapanese": 3314,
      "gers": 3315,
      "Ġinhab": 3316,
      "icated": 3317,
      "ague": 3318,
      "Ġfinished": 3319,
      "Ġgrowing": 3320,
      "Ġconditions": 3321,
      "Ġbase": 3322,
      "Ġresol": 3323,
      "Ġhid": 3324,
      "Ġhomes": 3325,
      "Ġahead": 3326,
      "ati": 3327,
      "iced": 3328,
      "rodu": 3329,
      "Ġsoon": 3330,
      "bb": 3331,
      "Ġsitting": 3332,
      "Ġwine": 3333,
      "Ġfont": 3334,
      "Ġhaven": 3335,
      "Ġstore": 3336,
      "exp": 3337,
      "Ġprophets": 3338,
      "tained": 3339,
      "Ġstone": 3340,
      "akes": 3341,
      "versity": 3342,
      "Ġresponse": 3343,
      "Ġconfirmed": 3344,
      "atic": 3345,
      "Ġforg": 3346,
      "estic": 3347,
      "Ġevening": 3348,
      "Ġprobab": 3349,
      "Ġ80": 3350,
      "Ġskill": 3351,
      "Ġsurve": 3352,
      "Ġbelieved": 3353,
      "Ġblessed": 3354,
      "reme": 3355,
      "atives": 3356,
      "Ġ2074": 3357,
      "Ġfields": 3358,
      "Ġ&": 3359,
      "Ġship": 3360,
      "Ġheight": 3361,
      "Ġstock": 3362,
      "Ġattract": 3363,
      "Ġorganiz": 3364,
      "Ġsixth": 3365,
      "life": 3366,
      "ivity": 3367,
      "Ġafric": 3368,
      "Ġearlier": 3369,
      "Ġmodern": 3370,
      "Ġharm": 3371,
      "Ġplaced": 3372,
      "Ġhistor": 3373,
      "Ġmanager": 3374,
      "which": 3375,
      "file": 3376,
      "Ġmaster": 3377,
      "osition": 3378,
      "Ġvall": 3379,
      "Ġelections": 3380,
      "Ġtourism": 3381,
      "Ġdangerous": 3382,
      "raham": 3383,
      "Ġdeep": 3384,
      "pted": 3385,
      "Ġobser": 3386,
      "Ġanswers": 3387,
      "enc": 3388,
      "Ġearn": 3389,
      "Ġentry": 3390,
      "Ġ60": 3391,
      "Ġextreme": 3392,
      "Ġobjects": 3393,
      "mer": 3394,
      "pha": 3395,
      "Ġ-": 3396,
      "Ġremained": 3397,
      "Ġdoub": 3398,
      "Ġhind": 3399,
      "Ġsheep": 3400,
      "Ġpregn": 3401,
      "Ġwouldn": 3402,
      "Ġsins": 3403,
      "Ġperfect": 3404,
      "oms": 3405,
      "rie": 3406,
      "Ġpolicies": 3407,
      "Ġofficial": 3408,
      "list": 3409,
      "haps": 3410,
      "oted": 3411,
      "Ġspeed": 3412,
      "Ġsurely": 3413,
      "Ġcalendar": 3414,
      "Ġpriority": 3415,
      "Ġsurprised": 3416,
      "Ġfestival": 3417,
      "raoh": 3418,
      "Ġrussia": 3419,
      "Ġindivid": 3420,
      "Ġrecorded": 3421,
      "Ġviolence": 3422,
      "zz": 3423,
      "Ġsick": 3424,
      "Ġproduced": 3425,
      "Ġcapacity": 3426,
      "Ġbow": 3427,
      "Ġcy": 3428,
      "Ġlat": 3429,
      "Ġroads": 3430,
      "Ġrecomm": 3431,
      "ms": 3432,
      "Ġgiving": 3433,
      "Ġexecut": 3434,
      "Ġbi": 3435,
      "ays": 3436,
      "Ġchildhood": 3437,
      "ograph": 3438,
      "jah": 3439,
      "inary": 3440,
      "Ġbound": 3441,
      "ril": 3442,
      "Ġanger": 3443,
      "Ġsuffe": 3444,
      "Ġlibr": 3445,
      "Ġeffort": 3446,
      "Ġleader": 3447,
      "gre": 3448,
      "Ġlam": 3449,
      "Ġalarm": 3450,
      "Ġloved": 3451,
      "Ġclim": 3452,
      "Ġjanuary": 3453,
      "Ġexpenditure": 3454,
      "ech": 3455,
      "Ġliter": 3456,
      "Ġste": 3457,
      "oples": 3458,
      "Ġframe": 3459,
      "Ġsports": 3460,
      "Ġfault": 3461,
      "Ġunable": 3462,
      "like": 3463,
      "Ġstands": 3464,
      "Ġadditional": 3465,
      "rast": 3466,
      "Ġant": 3467,
      "antly": 3468,
      "Ġraise": 3469,
      "Ġmilitary": 3470,
      "Ġpeoples": 3471,
      "Ġexperienced": 3472,
      "Ġphotos": 3473,
      "Ġphilist": 3474,
      "gment": 3475,
      "aries": 3476,
      "icate": 3477,
      "Ġjuly": 3478,
      "ols": 3479,
      "Ġmighty": 3480,
      "box": 3481,
      "Ġtouch": 3482,
      "pur": 3483,
      "Ġcollect": 3484,
      "Ġelected": 3485,
      "kiah": 3486,
      "Ġbran": 3487,
      "Ġdesigned": 3488,
      "Ġprophet": 3489,
      "Ġsafety": 3490,
      "Ġjos": 3491,
      "Ġrange": 3492,
      "Ġfeeling": 3493,
      "Ġproperty": 3494,
      "Ġexactly": 3495,
      "Ġappropriate": 3496,
      "oring": 3497,
      "urance": 3498,
      "Ġgirls": 3499,
      "Ġyourselves": 3500,
      "Ġvideos": 3501,
      "Ġcontinued": 3502,
      "vision": 3503,
      "Ġforce": 3504,
      "Ġtheme": 3505,
      "Ġpaid": 3506,
      "Ġnewsp": 3507,
      "Ġanimal": 3508,
      "ique": 3509,
      "fo": 3510,
      "ya": 3511,
      "Ġaim": 3512,
      "const": 3513,
      "last": 3514,
      "Ġmine": 3515,
      "enable": 3516,
      "Ġiniqu": 3517,
      "Ġbelong": 3518,
      "Ġmaintain": 3519,
      "Ġvisible": 3520,
      "Ġlaunched": 3521,
      "due": 3522,
      "ost": 3523,
      "Ġstar": 3524,
      "Ġsaving": 3525,
      "Ġcouple": 3526,
      "Ġfavor": 3527,
      "Ġsuffered": 3528,
      "lim": 3529,
      "lex": 3530,
      "Ġexchange": 3531,
      "Ġofficials": 3532,
      "Ġprimary": 3533,
      "ene": 3534,
      "Ġjail": 3535,
      "Ġsuper": 3536,
      "iving": 3537,
      "going": 3538,
      "bum": 3539,
      "urrent": 3540,
      "uled": 3541,
      "Ġrus": 3542,
      "Ġfeat": 3543,
      "Ġelectricity": 3544,
      "81": 3545,
      "such": 3546,
      "Ġcove": 3547,
      "Ġphase": 3548,
      "Ġradio": 3549,
      "mp": 3550,
      "Ġstaff": 3551,
      "Ġremote": 3552,
      "Ġvari": 3553,
      "cul": 3554,
      "each": 3555,
      "ada": 3556,
      "ateg": 3557,
      "ressed": 3558,
      "Ġremem": 3559,
      "Ġtalked": 3560,
      "Ġhighest": 3561,
      "col": 3562,
      "Ġworry": 3563,
      "Ġvol": 3564,
      "Ġabs": 3565,
      "Ġcross": 3566,
      "Ġcharge": 3567,
      "Ġauthority": 3568,
      "Ġfalgun": 3569,
      "eed": 3570,
      "yet": 3571,
      "Ġcance": 3572,
      "Ġbrows": 3573,
      "Ġrepresent": 3574,
      "ria": 3575,
      "Ġcollection": 3576,
      "couldn": 3577,
      "Ġcouncil": 3578,
      "ba": 3579,
      "Ġupd": 3580,
      "Ġhearing": 3581,
      "Ġdrive": 3582,
      "Ġfat": 3583,
      "another": 3584,
      "Ġgather": 3585,
      "odies": 3586,
      "Ġhappens": 3587,
      "Ġdoctors": 3588,
      "Ġenemy": 3589,
      "hua": 3590,
      "Ġicon": 3591,
      "Ġaccompl": 3592,
      "gal": 3593,
      "Ġreject": 3594,
      "Ġ35": 3595,
      "Ġsolomon": 3596,
      "Ġaust": 3597,
      "Ġweight": 3598,
      "Ġcomfort": 3599,
      "Ġtruly": 3600,
      "Ġaccused": 3601,
      "Ġtowards": 3602,
      "war": 3603,
      "Ġmis": 3604,
      "Ġspeech": 3605,
      "Ġhappening": 3606,
      "Ġcertainly": 3607,
      "Ġassociated": 3608,
      "tra": 3609,
      "asks": 3610,
      "Ġasp": 3611,
      "Ġofferings": 3612,
      "Ġcertific": 3613,
      "Ġmaterials": 3614,
      "Ġbed": 3615,
      "Ġpal": 3616,
      "Ġrespond": 3617,
      "Ġchosen": 3618,
      "Ġlibrary": 3619,
      "eral": 3620,
      "ume": 3621,
      "Ġensure": 3622,
      "Ġbasic": 3623,
      "Ġvalley": 3624,
      "Ġcam": 3625,
      "iable": 3626,
      "Ġdisp": 3627,
      "Ġchaitra": 3628,
      "Ġduty": 3629,
      "Ġsoftware": 3630,
      "somet": 3631,
      "Ġconvers": 3632,
      "Ġannual": 3633,
      "Ġprepare": 3634,
      "police": 3635,
      "10": 3636,
      "Ġtur": 3637,
      "Ġbes": 3638,
      "hoj": 3639,
      "Ġappointed": 3640,
      "Ġcorru": 3641,
      "Ġlimit": 3642,
      "time": 3643,
      "Ġbond": 3644,
      "Ġnice": 3645,
      "Ġlaws": 3646,
      "Ġstanding": 3647,
      "Ġapril": 3648,
      "Ġreligion": 3649,
      "Ġdomestic": 3650,
      "similar": 3651,
      "Ġextremely": 3652,
      "draw": 3653,
      "Ġgift": 3654,
      "pping": 3655,
      "Ġindustries": 3656,
      "Ġver": 3657,
      "atch": 3658,
      "Ġintrodu": 3659,
      "Ġcentral": 3660,
      "Ġsuffering": 3661,
      "Ġbhad": 3662,
      "Ġgreen": 3663,
      "Ġintegr": 3664,
      "Ġwisdom": 3665,
      "Ġcomment": 3666,
      "Ġmangs": 3667,
      "Ġcentury": 3668,
      "Ġencry": 3669,
      "Ġweakness": 3670,
      "Ġrighteousness": 3671,
      "Ġchurch": 3672,
      "Ġlevites": 3673,
      "ext": 3674,
      "isation": 3675,
      "Ġkart": 3676,
      "Ġasia": 3677,
      "Ġsuc": 3678,
      "Ġdiscussed": 3679,
      "Ġpractice": 3680,
      "Ġinhabit": 3681,
      "Ġmangsir": 3682,
      "Ġ2020": 3683,
      "Ġplanned": 3684,
      "Ġautomatically": 3685,
      "Ġstreng": 3686,
      "Ġsexual": 3687,
      "een": 3688,
      "Ġflight": 3689,
      "Ġstatement": 3690,
      "Ġallocated": 3691,
      "inion": 3692,
      "Ġoct": 3693,
      "Ġfamous": 3694,
      "Ġmale": 3695,
      "Ġmagh": 3696,
      "does": 3697,
      "Ġ2015": 3698,
      "Ġsometimes": 3699,
      "Ġunclean": 3700,
      "Ġclip": 3701,
      "Ġbull": 3702,
      "Ġeditor": 3703,
      "Ġscheduled": 3704,
      "Ġfemale": 3705,
      "Ġkartik": 3706,
      "action": 3707,
      "Ġcred": 3708,
      "icial": 3709,
      "Ġalbum": 3710,
      "Ġchallenges": 3711,
      "Ġdeclared": 3712,
      "Ġlegal": 3713,
      "Ġsucceed": 3714,
      "Ġeating": 3715,
      "Ġshraw": 3716,
      "Ġsche": 3717,
      "Ġsymb": 3718,
      "Ġaffects": 3719,
      "Ġdistribution": 3720,
      "Ġgermany": 3721,
      "Ġshrawan": 3722,
      "Ġgn": 3723,
      "Ġpoll": 3724,
      "lete": 3725,
      "phone": 3726,
      "Ġstandard": 3727,
      "Ġprinces": 3728,
      "aiah": 3729,
      "lve": 3730,
      "Ġalive": 3731,
      "Ġabraham": 3732,
      "Ġremains": 3733,
      "Ġsources": 3734,
      "ossible": 3735,
      "Ġsetting": 3736,
      "Ġsubm": 3737,
      "Ġmultitude": 3738,
      "maybe": 3739,
      "Ġcried": 3740,
      "verage": 3741,
      "Ġ70": 3742,
      "vior": 3743,
      "Ġmouse": 3744,
      "Ġrepe": 3745,
      "Ġpresence": 3746,
      "Ġ2008": 3747,
      "Ġglad": 3748,
      "Ġpromotion": 3749,
      "display": 3750,
      "write": 3751,
      "Ġprobably": 3752,
      "ivil": 3753,
      "Ġreview": 3754,
      "Ġhidden": 3755,
      "Ġcovered": 3756,
      "Ġbhadra": 3757,
      "oned": 3758,
      "Ġthanks": 3759,
      "Ġze": 3760,
      "Ġphilistines": 3761,
      "Ġwhatever": 3762,
      "Ġcommit": 3763,
      "Ġinheritance": 3764,
      "resp": 3765,
      "Ġarch": 3766,
      "Ġpersons": 3767,
      "Ġpresented": 3768,
      "Ġimproved": 3769,
      "Ġbais": 3770,
      "Ġreduce": 3771,
      "Ġreligious": 3772,
      "take": 3773,
      "hen": 3774,
      "Ġmach": 3775,
      "Ġstudied": 3776,
      "Ġcrow": 3777,
      "Ġoccas": 3778,
      "Ġpieces": 3779,
      "12": 3780,
      "Ġbha": 3781,
      "Ġded": 3782,
      "start": 3783,
      "Ġadop": 3784,
      "Ġstarting": 3785,
      "Ġstudying": 3786,
      "Ġimplementation": 3787,
      "Ġwedding": 3788,
      "cher": 3789,
      "oming": 3790,
      "Ġchair": 3791,
      "copy": 3792,
      "Ġburn": 3793,
      "Ġbodies": 3794,
      "Ġconv": 3795,
      "Ġshowed": 3796,
      "Ġtrees": 3797,
      "Ġpharaoh": 3798,
      "Ġbaisakh": 3799,
      "iet": 3800,
      "engers": 3801,
      "Ġign": 3802,
      "Ġround": 3803,
      "Ġlevels": 3804,
      "Ġillness": 3805,
      "iel": 3806,
      "Ġsn": 3807,
      "Ġrejo": 3808,
      "amin": 3809,
      "Ġshad": 3810,
      "Ġoutput": 3811,
      "Ġenabled": 3812,
      "Ġ45": 3813,
      "Ġformer": 3814,
      "Ġearthqu": 3815,
      "Ġheav": 3816,
      "Ġdisplayed": 3817,
      "Ġpattern": 3818,
      "Ġpackage": 3819,
      "Ġstreet": 3820,
      "Ġnumer": 3821,
      "Ġjose": 3822,
      "Ġfolders": 3823,
      "Ġlimited": 3824,
      "Ġmilk": 3825,
      "Ġinjured": 3826,
      "Ġsyn": 3827,
      "Ġcorpor": 3828,
      "Ġdepartment": 3829,
      "Ġoriginal": 3830,
      "Ġholiday": 3831,
      "pher": 3832,
      "Ġwealth": 3833,
      "look": 3834,
      "Ġtrack": 3835,
      "Ġpotential": 3836,
      "Ġarrange": 3837,
      "Ġsacrifice": 3838,
      "Ġnegative": 3839,
      "Ġuniversity": 3840,
      "Ġaustral": 3841,
      "moses": 3842,
      "Ġfreed": 3843,
      "Ġashoj": 3844,
      "Ġlose": 3845,
      "Ġmark": 3846,
      "Ġmultiple": 3847,
      "Ġbridge": 3848,
      "Ġmad": 3849,
      "Ġang": 3850,
      "Ġcancer": 3851,
      "Ġspot": 3852,
      "Ġreports": 3853,
      "Ġtwelve": 3854,
      "wor": 3855,
      "Ġpous": 3856,
      "Ġinfrast": 3857,
      "Ġangel": 3858,
      "Ġfixed": 3859,
      "Ġpoush": 3860,
      "Ġx": 3861,
      "Ġmeal": 3862,
      "Ġexpert": 3863,
      "Ġequal": 3864,
      "Ġcells": 3865,
      "Ġbottom": 3866,
      "ram": 3867,
      "Ġfed": 3868,
      "Ġkm": 3869,
      "Ġgoals": 3870,
      "Ġjest": 3871,
      "Ġves": 3872,
      "Ġcoord": 3873,
      "Ġinstru": 3874,
      "Ġbrain": 3875,
      "Ġcirc": 3876,
      "similarly": 3877,
      "back": 3878,
      "str": 3879,
      "unities": 3880,
      "Ġprices": 3881,
      "Ġcontract": 3882,
      "Ġfounded": 3883,
      "Ġinternal": 3884,
      "Ġjestha": 3885,
      "au": 3886,
      "omen": 3887,
      "Ġlad": 3888,
      "Ġgal": 3889,
      "Ġvacc": 3890,
      "Ġargu": 3891,
      "Ġcreation": 3892,
      "comp": 3893,
      "bel": 3894,
      "Ġcopy": 3895,
      "icient": 3896,
      "Ġsuitable": 3897,
      "Ġwrath": 3898,
      "Ġstudent": 3899,
      "Ġcauses": 3900,
      "Ġfifth": 3901,
      "ule": 3902,
      "estern": 3903,
      "ata": 3904,
      "iles": 3905,
      "ordan": 3906,
      "Ġstring": 3907,
      "Ġvessel": 3908,
      "Ġcorn": 3909,
      "Ġcivil": 3910,
      "lly": 3911,
      "Ġep": 3912,
      "irst": 3913,
      "ricket": 3914,
      "Ġsym": 3915,
      "Ġminimum": 3916,
      "Ġamerican": 3917,
      "Ġarrived": 3918,
      "Ġthrone": 3919,
      "Ġwalked": 3920,
      "Ġsurvey": 3921,
      "Ġreform": 3922,
      "see": 3923,
      "Ġrequested": 3924,
      "Ġexcell": 3925,
      "born": 3926,
      "Ġlock": 3927,
      "rench": 3928,
      "Ġsigns": 3929,
      "Ġ1990": 3930,
      "Ġcookies": 3931,
      "Ġjoseph": 3932,
      "lied": 3933,
      "ply": 3934,
      "ona": 3935,
      "icide": 3936,
      "Ġjordan": 3937,
      "ively": 3938,
      "Ġacqu": 3939,
      "Ġsectors": 3940,
      "hadh": 3941,
      "Ġadministration": 3942,
      "gen": 3943,
      "yal": 3944,
      "Ġsen": 3945,
      "Ġpen": 3946,
      "Ġstated": 3947,
      "Ġpowerful": 3948,
      "Ġinsurance": 3949,
      "Ġsecure": 3950,
      "Ġelders": 3951,
      "Ġconstructed": 3952,
      "Ġclothes": 3953,
      "Ġeli": 3954,
      "Ġpark": 3955,
      "Ġguard": 3956,
      "Ġdouble": 3957,
      "Ġmedicine": 3958,
      "Ġglobal": 3959,
      "Ġcommercial": 3960,
      "Ġfis": 3961,
      "Ġashadh": 3962,
      "Ġbudd": 3963,
      "Ġjeho": 3964,
      "Ġactivity": 3965,
      "Ġiran": 3966,
      "Ġtools": 3967,
      "Ġopportunities": 3968,
      "Ġdeleted": 3969,
      "Ġneighbor": 3970,
      "Ġorganizations": 3971,
      "Ġiniquity": 3972,
      "Ġwilling": 3973,
      "Ġund": 3974,
      "cont": 3975,
      "epend": 3976,
      "Ġears": 3977,
      "Ġcommandment": 3978,
      "overed": 3979,
      "Ġbeneficial": 3980,
      "Ġachieved": 3981,
      "Ġmistake": 3982,
      "Ġrow": 3983,
      "lict": 3984,
      "Ġunderstood": 3985,
      "first": 3986,
      "ober": 3987,
      "Ġfly": 3988,
      "cient": 3989,
      "sib": 3990,
      "22": 3991,
      "Ġhair": 3992,
      "Ġuk": 3993,
      "Ġprofile": 3994,
      "Ġoctober": 3995,
      "Ġearthquake": 3996,
      "aken": 3997,
      "Ġraj": 3998,
      "ondon": 3999,
      "Ġmajority": 4000,
      "Ġmaximum": 4001,
      "Ġcertificate": 4002,
      "Ġkde": 4003,
      "Ġquar": 4004,
      "issions": 4005,
      "Ġpreview": 4006,
      "Ġjobs": 4007,
      "Ġtopic": 4008,
      "Ġpraise": 4009,
      "Ġwidely": 4010,
      "ube": 4011,
      "Ġgreatest": 4012,
      "Ġcana": 4013,
      "Ġchannel": 4014,
      "Ġemphas": 4015,
      "Ġchoice": 4016,
      "umbai": 4017,
      "Ġmental": 4018,
      "fact": 4019,
      "Ġaverage": 4020,
      "Ġhide": 4021,
      "ama": 4022,
      "Ġcomb": 4023,
      "Ġark": 4024,
      "Ġseries": 4025,
      "Ġ2017": 4026,
      "Ġvillages": 4027,
      "Ġkindness": 4028,
      "Ġdirectly": 4029,
      "Ġseparate": 4030,
      "Ġara": 4031,
      "Ġpages": 4032,
      "Ġkore": 4033,
      "Ġtechnical": 4034,
      "Ġremembered": 4035,
      "Ġinhabitants": 4036,
      "ibility": 4037,
      "Ġaid": 4038,
      "Ġfill": 4039,
      "Ġmic": 4040,
      "Ġfair": 4041,
      "Ġfeast": 4042,
      "Ġstarts": 4043,
      "Ġcars": 4044,
      "Ġsolve": 4045,
      "Ġbeauty": 4046,
      "Ġpoetry": 4047,
      "rs": 4048,
      "Ġfought": 4049,
      "Ġstation": 4050,
      "Ġmanu": 4051,
      "Ġdefin": 4052,
      "Ġexamples": 4053,
      "Ġbenefits": 4054,
      "Ġdeparted": 4055,
      "orm": 4056,
      "Ġfirm": 4057,
      "Ġtrain": 4058,
      "Ġheads": 4059,
      "Ġdarkness": 4060,
      "Ġcelebrated": 4061,
      "ler": 4062,
      "ony": 4063,
      "Ġlondon": 4064,
      "Ġplat": 4065,
      "Ġshar": 4066,
      "Ġunion": 4067,
      "Ġcurs": 4068,
      "Ġbroad": 4069,
      "yond": 4070,
      "Ġstars": 4071,
      "Ġability": 4072,
      "Ġ31": 4073,
      "Ġcareful": 4074,
      "Ġchecked": 4075,
      "Ġprinci": 4076,
      "choose": 4077,
      "Ġindeed": 4078,
      "Ġboat": 4079,
      "rict": 4080,
      "Ġperformed": 4081,
      "Ġpictures": 4082,
      "Ġtelevision": 4083,
      "power": 4084,
      "Ġcode": 4085,
      "raft": 4086,
      "Ġsuicide": 4087,
      "Ġrose": 4088,
      "Ġinval": 4089,
      "Ġprophes": 4090,
      "iction": 4091,
      "Ġtribe": 4092,
      "Ġleaving": 4093,
      "Ġaug": 4094,
      "import": 4095,
      "Ġric": 4096,
      "Ġindex": 4097,
      "Ġolder": 4098,
      "Ġlooks": 4099,
      "Ġproduce": 4100,
      "Ġended": 4101,
      "Ġskin": 4102,
      "Ġcontinu": 4103,
      "Ġaudio": 4104,
      "Ġappeared": 4105,
      "Ġquickly": 4106,
      "Ġsympt": 4107,
      "Ġok": 4108,
      "Ġcricket": 4109,
      "Ġincreases": 4110,
      "Ġmatches": 4111,
      "Ġtempor": 4112,
      "Ġspecify": 4113,
      "Ġfalse": 4114,
      "Ġhurt": 4115,
      "def": 4116,
      "Ġpil": 4117,
      "Ġwear": 4118,
      "Ġappre": 4119,
      "Ġpret": 4120,
      "Ġmonit": 4121,
      "Ġthirty": 4122,
      "Ġ2009": 4123,
      "Ġstaying": 4124,
      "Ġpancha": 4125,
      "num": 4126,
      "Ġrock": 4127,
      "Ġpaul": 4128,
      "Ġfacts": 4129,
      "Ġheavens": 4130,
      "Ġdebt": 4131,
      "Ġpregnant": 4132,
      "Ġbrowser": 4133,
      "Ġwestern": 4134,
      "Ġdro": 4135,
      "Ġbeyond": 4136,
      "Ġvine": 4137,
      "conn": 4138,
      "Ġexpression": 4139,
      "nam": 4140,
      "Ġsection": 4141,
      "Ġfollows": 4142,
      "Ġmobil": 4143,
      "Ġdrug": 4144,
      "min": 4145,
      "Ġsort": 4146,
      "Ġmix": 4147,
      "Ġexcept": 4148,
      "Ġ2012": 4149,
      "Ġofficers": 4150,
      "david": 4151,
      "Ġsignificant": 4152,
      "Ġnumerous": 4153,
      "Ġbought": 4154,
      "oured": 4155,
      "Ġcru": 4156,
      "Ġkid": 4157,
      "Ġate": 4158,
      "Ġrout": 4159,
      "Ġiniti": 4160,
      "Ġdamage": 4161,
      "Ġassistance": 4162,
      "Ġactions": 4163,
      "iled": 4164,
      "Ġthreat": 4165,
      "acle": 4166,
      "Ġhappiness": 4167,
      "Ġjoined": 4168,
      "Ġchem": 4169,
      "Ġdiseases": 4170,
      "Ġdirected": 4171,
      "Ġterri": 4172,
      "Ġmanufact": 4173,
      "13": 4174,
      "Ġmass": 4175,
      "roll": 4176,
      "Ġdecre": 4177,
      "ators": 4178,
      "sequ": 4179,
      "Ġindepend": 4180,
      "Ġfoundation": 4181,
      "Ġeasier": 4182,
      "Ġnearly": 4183,
      "Ġaccepted": 4184,
      "Ġrevealed": 4185,
      "Ġfigure": 4186,
      "Ġcontents": 4187,
      "Ġsubs": 4188,
      "Ġpreparing": 4189,
      "Ġcrowd": 4190,
      "uated": 4191,
      "Ġ00": 4192,
      "Ġball": 4193,
      "Ġluck": 4194,
      "Ġalthough": 4195,
      "hib": 4196,
      "ferences": 4197,
      "Ġ2014": 4198,
      "Ġpurposes": 4199,
      "Ġinvalid": 4200,
      "Ġpanchay": 4201,
      "will": 4202,
      "istered": 4203,
      "Ġspl": 4204,
      "Ġprovides": 4205,
      "Ġwatching": 4206,
      "Ġox": 4207,
      "Ġsud": 4208,
      "Ġimpossible": 4209,
      "Ġrather": 4210,
      "Ġrail": 4211,
      "Ġtraffic": 4212,
      "Ġbanned": 4213,
      "Ġregional": 4214,
      "Ġ.": 4215,
      "Ġdrop": 4216,
      "using": 4217,
      "Ġroot": 4218,
      "Ġsubst": 4219,
      "Ġavo": 4220,
      "print": 4221,
      "Ġdreams": 4222,
      "Ġtourists": 4223,
      "Ġscientific": 4224,
      "Ġafrica": 4225,
      "Ġdry": 4226,
      "Ġwhoever": 4227,
      "Ġmoon": 4228,
      "Ġruns": 4229,
      "Ġreality": 4230,
      "Ġslow": 4231,
      "Ġsatisfied": 4232,
      "sw": 4233,
      "Ġsisters": 4234,
      "ani": 4235,
      "Ġhab": 4236,
      "Ġweap": 4237,
      "Ġresident": 4238,
      "Ġproviding": 4239,
      "Ġhospitals": 4240,
      "Ġcorona": 4241,
      "airs": 4242,
      "Ġpossess": 4243,
      "cast": 4244,
      "inated": 4245,
      "Ġcop": 4246,
      "Ġpix": 4247,
      "ana": 4248,
      "Ġimm": 4249,
      "Ġperman": 4250,
      "Ġpeter": 4251,
      "14": 4252,
      "Ġwel": 4253,
      "ighth": 4254,
      "Ġregions": 4255,
      "Ġtransfer": 4256,
      "Ġterminal": 4257,
      "delete": 4258,
      "Ġmir": 4259,
      "Ġforty": 4260,
      "Ġ32": 4261,
      "Ġvisited": 4262,
      "Ġ2007": 4263,
      "Ġcubits": 4264,
      "Ġinstitutions": 4265,
      "uff": 4266,
      "atory": 4267,
      "Ġlic": 4268,
      "three": 4269,
      "Ġrid": 4270,
      "Ġinformed": 4271,
      "11": 4272,
      "Ġham": 4273,
      "Ġsake": 4274,
      "Ġ500": 4275,
      "Ġinstitution": 4276,
      "Ġdepends": 4277,
      "Ġportion": 4278,
      "Ġmeasure": 4279,
      "under": 4280,
      "requ": 4281,
      "Ġscored": 4282,
      "Ġcontext": 4283,
      "Ġ2013": 4284,
      "Ġkeeping": 4285,
      "Ġallows": 4286,
      "Ġcreating": 4287,
      "Ġpiece": 4288,
      "Ġcritic": 4289,
      "Ġinfrastructure": 4290,
      "Ġtv": 4291,
      "Ġeighth": 4292,
      "Ġexternal": 4293,
      "Ġaged": 4294,
      "Ġscared": 4295,
      "izing": 4296,
      "Ġdecade": 4297,
      "Ġplanet": 4298,
      "Ġminute": 4299,
      "Ġtreas": 4300,
      "Ġreplace": 4301,
      "tog": 4302,
      "Ġinput": 4303,
      "resh": 4304,
      "ctors": 4305,
      "Ġsurround": 4306,
      "Ġprotection": 4307,
      "Ġgrand": 4308,
      "Ġescape": 4309,
      "aw": 4310,
      "phy": 4311,
      "inst": 4312,
      "Ġmuse": 4313,
      "Ġyork": 4314,
      "Ġstones": 4315,
      "thern": 4316,
      "Ġmeant": 4317,
      "Ġvision": 4318,
      "Ġplants": 4319,
      "ief": 4320,
      "plate": 4321,
      "Ġfled": 4322,
      "Ġreply": 4323,
      "Ġmotor": 4324,
      "des": 4325,
      "zil": 4326,
      "Ġcards": 4327,
      "Ġourselves": 4328,
      "Ġtested": 4329,
      "export": 4330,
      "Ġfruits": 4331,
      "Ġlifted": 4332,
      "Ġdrag": 4333,
      "Ġstrike": 4334,
      "Ġfulfill": 4335,
      "Ġvictory": 4336,
      "Ġawa": 4337,
      "Ġaustralia": 4338,
      "Ġaugust": 4339,
      "Ġtag": 4340,
      "anish": 4341,
      "Ġforced": 4342,
      "Ġhero": 4343,
      "allow": 4344,
      "Ġtwice": 4345,
      "Ġfeature": 4346,
      "igned": 4347,
      "Ġhearts": 4348,
      "Ġadvice": 4349,
      "Ġapplications": 4350,
      "Ġcaptain": 4351,
      "Ġinvestigation": 4352,
      "Ġvehicle": 4353,
      "encies": 4354,
      "Ġsi": 4355,
      "Ġpride": 4356,
      "Ġchanging": 4357,
      "Ġfailure": 4358,
      "Ġwonderful": 4359,
      "ml": 4360,
      "Ġyours": 4361,
      "Ġfinance": 4362,
      "Ġnearby": 4363,
      "Ġdelight": 4364,
      "Ġsilent": 4365,
      "Ġappreci": 4366,
      "19": 4367,
      "Ġsens": 4368,
      "erc": 4369,
      "itter": 4370,
      "Ġmumbai": 4371,
      "Ġgre": 4372,
      "Ġloan": 4373,
      "rency": 4374,
      "Ġunique": 4375,
      "Ġapproved": 4376,
      "Ġideas": 4377,
      "Ġdiscussion": 4378,
      "dp": 4379,
      "aked": 4380,
      "Ġcomplex": 4381,
      "Ġbecomes": 4382,
      "Ġnewspaper": 4383,
      "Ġfrench": 4384,
      "Ġnar": 4385,
      "icit": 4386,
      "Ġforget": 4387,
      "Ġ36": 4388,
      "Ġ2010": 4389,
      "Ġmarkets": 4390,
      "Ġsinging": 4391,
      "Ġcounsel": 4392,
      "Ġdecember": 4393,
      "ares": 4394,
      "Ġstructure": 4395,
      "child": 4396,
      "Ġloving": 4397,
      "Ġcompon": 4398,
      "oga": 4399,
      "Ġbusinesses": 4400,
      "Ġprevent": 4401,
      "Ġbirthday": 4402,
      "Ġjune": 4403,
      "Ġmuseum": 4404,
      "istics": 4405,
      "Ġhighlight": 4406,
      "Ġgeneration": 4407,
      "ourage": 4408,
      "18": 4409,
      "chas": 4410,
      "Ġfle": 4411,
      "Ġfriday": 4412,
      "Ġplays": 4413,
      "Ġbrit": 4414,
      "Ġgrant": 4415,
      "Ġadvant": 4416,
      "Ġwidth": 4417,
      "Ġcredit": 4418,
      "wide": 4419,
      "Ġisland": 4420,
      "Ġlie": 4421,
      "vere": 4422,
      "keep": 4423,
      "Ġopinion": 4424,
      "Ġofficer": 4425,
      "Ġparticipation": 4426,
      "Ġcharacters": 4427,
      "Ġfactory": 4428,
      "vious": 4429,
      "Ġbore": 4430,
      "iters": 4431,
      "Ġconcept": 4432,
      "Ġoffices": 4433,
      "Ġcrime": 4434,
      "Ġbenj": 4435,
      "Ġparticipate": 4436,
      "Ġtraditional": 4437,
      "Ġeph": 4438,
      "eth": 4439,
      "Ġenhan": 4440,
      "Ġexpensive": 4441,
      "Ġjoin": 4442,
      "Ġnepalese": 4443,
      "Ġproposed": 4444,
      "Ġbegins": 4445,
      "Ġcharged": 4446,
      "Ġexplain": 4447,
      "Ġfulfilled": 4448,
      "sometimes": 4449,
      "ghan": 4450,
      "Ġbeat": 4451,
      "Ġlate": 4452,
      "uries": 4453,
      "Ġ39": 4454,
      "ression": 4455,
      "Ġ2011": 4456,
      "Ġcosts": 4457,
      "valid": 4458,
      "Ġconfirm": 4459,
      "Ġmissing": 4460,
      "Ġrejected": 4461,
      "Ġbang": 4462,
      "Ġlies": 4463,
      "Ġgard": 4464,
      "ster": 4465,
      "Ġfool": 4466,
      "Ġedge": 4467,
      "Ġcentre": 4468,
      "Ġsweet": 4469,
      "Ġcanaan": 4470,
      "iers": 4471,
      "Ġbag": 4472,
      "Ġpill": 4473,
      "aint": 4474,
      "Ġblue": 4475,
      "Ġdistance": 4476,
      "Ġpurchas": 4477,
      "Ġsought": 4478,
      "Ġasking": 4479,
      "Ġamazing": 4480,
      "Ġfiscal": 4481,
      "anced": 4482,
      "Ġdefined": 4483,
      "2072": 4484,
      "Ġinfo": 4485,
      "Ġbreast": 4486,
      "Ġresource": 4487,
      "Ġseparated": 4488,
      "school": 4489,
      "Ġrussi": 4490,
      "Ġclipboard": 4491,
      "stand": 4492,
      "Ġstored": 4493,
      "Ġmonday": 4494,
      "nobody": 4495,
      "Ġjudgment": 4496,
      "Ġlearning": 4497,
      "aj": 4498,
      "nor": 4499,
      "Ġmour": 4500,
      "pper": 4501,
      "lock": 4502,
      "Ġopening": 4503,
      "Ġsites": 4504,
      "Ġkinds": 4505,
      "Ġexceed": 4506,
      "remiah": 4507,
      "Ġbalance": 4508,
      "Ġmagn": 4509,
      "Ġoccasion": 4510,
      "Ġwives": 4511,
      "ali": 4512,
      "Ġconven": 4513,
      "Ġroyal": 4514,
      "Ġremind": 4515,
      "Ġauto": 4516,
      "Ġchemical": 4517,
      "vant": 4518,
      "adesh": 4519,
      "emic": 4520,
      "Ġcoffe": 4521,
      "place": 4522,
      "Ġchari": 4523,
      "Ġgrade": 4524,
      "Ġlawy": 4525,
      "2078": 4526,
      "Ġdescribed": 4527,
      "Ġjoshua": 4528,
      "Ġexcellent": 4529,
      "make": 4530,
      "haz": 4531,
      "Ġfort": 4532,
      "Ġdecisions": 4533,
      "Ġdeveloping": 4534,
      "Ġdesp": 4535,
      "Ġdesol": 4536,
      "Ġsurface": 4537,
      "Ġgrain": 4538,
      "Ġremaining": 4539,
      "gunj": 4540,
      "Ġpermission": 4541,
      "Ġcamera": 4542,
      ",\"": 4543,
      "Ġvert": 4544,
      "Ġpit": 4545,
      "ala": 4546,
      "raim": 4547,
      "ulated": 4548,
      "abor": 4549,
      "Ġunc": 4550,
      "bey": 4551,
      "Ġadmitted": 4552,
      "Ġfarming": 4553,
      "Ġexcited": 4554,
      "Ġtranslated": 4555,
      "configure": 4556,
      "Ġprofessional": 4557,
      "Ġcoffee": 4558,
      "Ġhate": 4559,
      "Ġaltern": 4560,
      "aces": 4561,
      "Ġloves": 4562,
      "ints": 4563,
      "Ġeval": 4564,
      "Ġfinally": 4565,
      "Ġrefused": 4566,
      "Ġsearching": 4567,
      "Ġopposition": 4568,
      "Ġpermissions": 4569,
      "dered": 4570,
      "Ġdust": 4571,
      "Ġwrites": 4572,
      "2077": 4573,
      "Ġdelay": 4574,
      "Ġmercy": 4575,
      "Ġfifty": 4576,
      "Ġdemocr": 4577,
      "ita": 4578,
      "Ġpand": 4579,
      "Ġgrew": 4580,
      "Ġsabb": 4581,
      "Ġuses": 4582,
      "Ġscale": 4583,
      "Ġacts": 4584,
      "Ġcaught": 4585,
      "Ġexperiences": 4586,
      "Ġshooting": 4587,
      "Ġmeasures": 4588,
      "Ġproperly": 4589,
      "Ġsymptoms": 4590,
      "Ġsabbath": 4591,
      "Ġaro": 4592,
      "emp": 4593,
      "Ġmaintained": 4594,
      "Ġextra": 4595,
      "Ġencod": 4596,
      "Ġbrand": 4597,
      "Ġsalvation": 4598,
      "Ġflowers": 4599,
      "Ġadopted": 4600,
      "Ġsqu": 4601,
      "Ġmun": 4602,
      "Ġfilen": 4603,
      "Ġgreatly": 4604,
      "Ġfinish": 4605,
      "Ġobjective": 4606,
      "Ġfacility": 4607,
      "Ġvictim": 4608,
      "inate": 4609,
      "Ġcas": 4610,
      "verty": 4611,
      "Ġshortage": 4612,
      "Ġinitial": 4613,
      "Ġfeatures": 4614,
      "Ġtiss": 4615,
      "invalid": 4616,
      "rel": 4617,
      "Ġwave": 4618,
      "ilty": 4619,
      "Ġjon": 4620,
      "Ġmoab": 4621,
      "Ġpoverty": 4622,
      "Ġpreser": 4623,
      "Ġtests": 4624,
      "Ġhumans": 4625,
      "Ġkorea": 4626,
      "30": 4627,
      "Ġtasks": 4628,
      "remove": 4629,
      "Ġpick": 4630,
      "asse": 4631,
      "Ġwaste": 4632,
      "Ġelements": 4633,
      "Ġzer": 4634,
      "Ġextended": 4635,
      "Ġmistakes": 4636,
      "Ġstreets": 4637,
      "Ġdenied": 4638,
      "Ġstruggle": 4639,
      "Ġau": 4640,
      "Ġimag": 4641,
      "Ġquiet": 4642,
      "Ġlaugh": 4643,
      "Ġdeficit": 4644,
      "Ġdeaths": 4645,
      "Ġposts": 4646,
      "Ġdelhi": 4647,
      "Ġappears": 4648,
      "Ġapart": 4649,
      "Ġdoubt": 4650,
      "Ġvariety": 4651,
      "Ġplatform": 4652,
      "21": 4653,
      "Ġterror": 4654,
      "Ġah": 4655,
      "Ġshi": 4656,
      "Ġconference": 4657,
      "Ġrivers": 4658,
      "Ġqual": 4659,
      "Ġbrings": 4660,
      "Ġevidence": 4661,
      "Ġfaced": 4662,
      "Ġmobile": 4663,
      "Ġbehavior": 4664,
      "Ġpretty": 4665,
      "toggle": 4666,
      "xic": 4667,
      "hara": 4668,
      "lling": 4669,
      "Ġali": 4670,
      "Ġthres": 4671,
      "Ġmanpower": 4672,
      "2076": 4673,
      "2079": 4674,
      "Ġeaten": 4675,
      "Ġorganized": 4676,
      "moreover": 4677,
      "Ġordin": 4678,
      "Ġcrying": 4679,
      "Ġtend": 4680,
      "sec": 4681,
      "Ġcomments": 4682,
      "Ġspain": 4683,
      "Ġguilty": 4684,
      "Ġapproach": 4685,
      "Ġfighting": 4686,
      "Ġhorse": 4687,
      "Ġmillions": 4688,
      "Ġbenjamin": 4689,
      "Ġcult": 4690,
      "Ġphar": 4691,
      "athan": 4692,
      "Ġperhaps": 4693,
      "Ġcold": 4694,
      "ansion": 4695,
      "Ġcalls": 4696,
      "Ġregistered": 4697,
      "Ġarticles": 4698,
      "Ġsystems": 4699,
      "Ġelement": 4700,
      "chase": 4701,
      "parent": 4702,
      "nes": 4703,
      "Ġsense": 4704,
      "Ġnut": 4705,
      "Ġexerc": 4706,
      "Ġsheet": 4707,
      "Ġprinter": 4708,
      "Ġfocused": 4709,
      "Ġawards": 4710,
      "Ġheavy": 4711,
      "Ġcourage": 4712,
      "Ġgates": 4713,
      "Ġreward": 4714,
      "Ġowner": 4715,
      "Ġpropos": 4716,
      "Ġseconds": 4717,
      "Ġblock": 4718,
      "Ġsimply": 4719,
      "Ġurban": 4720,
      "Ġleadership": 4721,
      "Ġshadow": 4722,
      "Ġangry": 4723,
      "17": 4724,
      "rase": 4725,
      "Ġafghan": 4726,
      "Ġ38": 4727,
      "Ġ2018": 4728,
      "2074": 4729,
      "Ġlayers": 4730,
      "Ġdrawn": 4731,
      "isco": 4732,
      "Ġstra": 4733,
      "Ġancient": 4734,
      "lose": 4735,
      "Ġapplies": 4736,
      "2071": 4737,
      "Ġperformance": 4738,
      "Ġhoriz": 4739,
      "Ġwalking": 4740,
      "Ġsuggestions": 4741,
      "women": 4742,
      "Ġfig": 4743,
      "Ġgas": 4744,
      "Ġalle": 4745,
      "Ġleague": 4746,
      "Ġspr": 4747,
      "Ġenable": 4748,
      "Ġexpansion": 4749,
      "Ġletters": 4750,
      "Ġsignature": 4751,
      "Ġpurchase": 4752,
      "Ġmethods": 4753,
      "Ġfreedom": 4754,
      "Ġarab": 4755,
      "iar": 4756,
      "king": 4757,
      "Ġko": 4758,
      "Ġsept": 4759,
      "Ġamb": 4760,
      "ables": 4761,
      "Ġ194": 4762,
      "Ġprotest": 4763,
      "Ġprofit": 4764,
      "Ġfallen": 4765,
      "Ġlinks": 4766,
      "Ġregarding": 4767,
      "Ġproperties": 4768,
      "Ġtrouble": 4769,
      "Ġsymbol": 4770,
      "number": 4771,
      "lt": 4772,
      "Ġbeth": 4773,
      "Ġshares": 4774,
      "Ġprince": 4775,
      "Ġindic": 4776,
      "Ġmedium": 4777,
      "Ġcustomer": 4778,
      "Ġfactors": 4779,
      "Ġseemed": 4780,
      "Ġhyd": 4781,
      "color": 4782,
      "point": 4783,
      "inter": 4784,
      "isha": 4785,
      "Ġpure": 4786,
      "Ġbeings": 4787,
      "Ġpros": 4788,
      "estock": 4789,
      "Ġ2000": 4790,
      "Ġdisk": 4791,
      "2081": 4792,
      "Ġshowing": 4793,
      "Ġincludes": 4794,
      "mi": 4795,
      "Ġdance": 4796,
      "sear": 4797,
      "Ġdemon": 4798,
      "Ġunless": 4799,
      "Ġclothing": 4800,
      "ertain": 4801,
      "Ġhills": 4802,
      "Ġtemporary": 4803,
      "thent": 4804,
      "icket": 4805,
      "stud": 4806,
      "Ġunit": 4807,
      "Ġlivestock": 4808,
      "Ġbroke": 4809,
      "Ġsumm": 4810,
      "Ġgnome": 4811,
      "son": 4812,
      "Ġcat": 4813,
      "aria": 4814,
      "usion": 4815,
      "Ġmanner": 4816,
      "Ġtrash": 4817,
      "ublic": 4818,
      "Ġdifferences": 4819,
      "Ġemer": 4820,
      "2073": 4821,
      "Ġcitizen": 4822,
      "Ġobey": 4823,
      "orry": 4824,
      "Ġpok": 4825,
      "Ġsevere": 4826,
      "ache": 4827,
      "again": 4828,
      "Ġ48": 4829,
      "Ġconscious": 4830,
      "2080": 4831,
      "orses": 4832,
      "Ġrealized": 4833,
      "down": 4834,
      "wer": 4835,
      "reg": 4836,
      "Ġgi": 4837,
      "hope": 4838,
      "Ġshape": 4839,
      "Ġclients": 4840,
      "Ġeverybody": 4841,
      "Ġbuildings": 4842,
      "Ġdedicated": 4843,
      "Ã£": 4844,
      "Ġtom": 4845,
      "Ġlogin": 4846,
      "Ġrob": 4847,
      "Ġ33": 4848,
      "Ġhighly": 4849,
      "Ġsurv": 4850,
      "Ġrefuge": 4851,
      "zekiah": 4852,
      "default": 4853,
      "uals": 4854,
      "wa": 4855,
      "Ġwound": 4856,
      "arily": 4857,
      "Ġye": 4858,
      "Ġhect": 4859,
      "Ġjam": 4860,
      "iven": 4861,
      "Ġagreed": 4862,
      "Ġbutt": 4863,
      "Ġcomplic": 4864,
      "Ġbecoming": 4865,
      "Ġfellow": 4866,
      "Ġpoem": 4867,
      "Ġpossibility": 4868,
      "Ġblind": 4869,
      "Ġ75": 4870,
      "Ġartists": 4871,
      "Ġcris": 4872,
      "Ġparticipated": 4873,
      "Ġexecute": 4874,
      "Ġsanctuary": 4875,
      "Ġliterature": 4876,
      "Ġcircum": 4877,
      "Ġprosper": 4878,
      "Ġtam": 4879,
      "Ġarrow": 4880,
      "Ġadult": 4881,
      "Ġhighway": 4882,
      "Ġtesting": 4883,
      "Ġdevices": 4884,
      "Ġbirds": 4885,
      "Ġbapt": 4886,
      "Ġinfluence": 4887,
      "Ġrecommended": 4888,
      "Ġgen": 4889,
      "Ġforces": 4890,
      "Ġhorses": 4891,
      "Ġkhan": 4892,
      "Ġ195": 4893,
      "Ġgrown": 4894,
      "Ġcommandments": 4895,
      "Ġzion": 4896,
      "Ġspending": 4897,
      "Ġwidget": 4898,
      "Ġdistributed": 4899,
      "Ġclaimed": 4900,
      "Ġpunish": 4901,
      "Ġavoid": 4902,
      "Ġarose": 4903,
      "find": 4904,
      "water": 4905,
      "ering": 4906,
      "Ġcateg": 4907,
      "Ġmask": 4908,
      "aking": 4909,
      "apers": 4910,
      "Ġplane": 4911,
      "Ġcollected": 4912,
      "Ġsatur": 4913,
      "Ġtrading": 4914,
      "Ġbrazil": 4915,
      "Ġsoldiers": 4916,
      "zer": 4917,
      "Ġbath": 4918,
      "Ġfra": 4919,
      "Ġhan": 4920,
      "Ġalco": 4921,
      "Ġstret": 4922,
      "Ġfloor": 4923,
      "icipal": 4924,
      "ipp": 4925,
      "Ġbright": 4926,
      "Ġgain": 4927,
      "Ġcanada": 4928,
      "Ġknowing": 4929,
      "Ġhelping": 4930,
      "Ġjeremiah": 4931,
      "Ġtribes": 4932,
      "Ġindividual": 4933,
      "Ġchairman": 4934,
      "cisco": 4935,
      "ior": 4936,
      "mod": 4937,
      "mother": 4938,
      "nothing": 4939,
      "Ġchat": 4940,
      "Ġlamp": 4941,
      "Ġtwitter": 4942,
      "agar": 4943,
      "Ġ34": 4944,
      "Ġclearly": 4945,
      "Ġstatutes": 4946,
      "Ġlinked": 4947,
      "Ġconsumed": 4948,
      "Ġsecretary": 4949,
      "Ġreigned": 4950,
      "Ġephraim": 4951,
      "bles": 4952,
      "ĠÅ": 4953,
      "Ġtough": 4954,
      "Ġsoil": 4955,
      "Ġchap": 4956,
      "Ġattend": 4957,
      "Ġconfident": 4958,
      "Ġglor": 4959,
      "Ġspecies": 4960,
      "Ġgolden": 4961,
      "Ġequip": 4962,
      "Ġidentify": 4963,
      "Ġpackages": 4964,
      "Ġskills": 4965,
      "Ġera": 4966,
      "Ġwash": 4967,
      "Ġspanish": 4968,
      "Ġ37": 4969,
      "Ġforms": 4970,
      "Ġissued": 4971,
      "Ġparis": 4972,
      "Ġmuslim": 4973,
      "Ġordered": 4974,
      "Ġmaterial": 4975,
      "Ġcooperation": 4976,
      "Ġpleasure": 4977,
      "Ġrussian": 4978,
      "Ġmunicipal": 4979,
      "Ġcrisis": 4980,
      "25": 4981,
      "clud": 4982,
      "ses": 4983,
      "Ġbegun": 4984,
      "Ġlin": 4985,
      "rap": 4986,
      "Ġabom": 4987,
      "Ġarg": 4988,
      "Ġquant": 4989,
      "Ġstartup": 4990,
      "Ġgets": 4991,
      "never": 4992,
      "Ġinfected": 4993,
      "Ġ1989": 4994,
      "Ġtowns": 4995,
      "Ġprayer": 4996,
      "gregation": 4997,
      "Ġsubmitted": 4998,
      "current": 4999,
      "hon": 5000,
      "ino": 5001,
      "orters": 5002,
      "Ġatm": 5003,
      "Ġhandle": 5004,
      "Ġdecide": 5005,
      "ogle": 5006,
      "Ġwarning": 5007,
      "Ġgenerations": 5008,
      "Ġobjectives": 5009,
      "Ġdrugs": 5010,
      "Ġstrugg": 5011,
      "Ġrejoice": 5012,
      "employ": 5013,
      "tes": 5014,
      "Ġina": 5015,
      "Ġsav": 5016,
      "Ġammon": 5017,
      "Ġincor": 5018,
      "Ġimported": 5019,
      "Ġ2006": 5020,
      "Ġpanel": 5021,
      "children": 5022,
      "Ġseptember": 5023,
      "Ġsaturday": 5024,
      "bet": 5025,
      "kes": 5026,
      "Ġgun": 5027,
      "Ġreci": 5028,
      "before": 5029,
      "Ġconsist": 5030,
      "Ġevolution": 5031,
      "Ġtells": 5032,
      "Ġinsert": 5033,
      "Ġaffairs": 5034,
      "Ġextension": 5035,
      "Ġassy": 5036,
      "Ġoperating": 5037,
      "Ġgraph": 5038,
      "Ġburied": 5039,
      "Ġconsumer": 5040,
      "Ġexpressed": 5041,
      "fl": 5042,
      "run": 5043,
      "tube": 5044,
      "atter": 5045,
      "Ġheat": 5046,
      "Ġeverywhere": 5047,
      "Ġzo": 5048,
      "Ġiron": 5049,
      "Ġrooms": 5050,
      "Ġdigital": 5051,
      "Ġdetermined": 5052,
      "Ġclimate": 5053,
      "ĠÅĵ": 5054,
      "16": 5055,
      "bru": 5056,
      "Ġburned": 5057,
      "Ġyoutube": 5058,
      "amet": 5059,
      "Ġstick": 5060,
      "Ġsund": 5061,
      "aste": 5062,
      "ccer": 5063,
      "Ġanywhere": 5064,
      "Ġblame": 5065,
      "Ġdepos": 5066,
      "boam": 5067,
      "Ġtemplate": 5068,
      "ini": 5069,
      "Ġstream": 5070,
      "Ġaccord": 5071,
      "Ġcollabor": 5072,
      "Ġfacing": 5073,
      "Ġoperate": 5074,
      "Ġgrace": 5075,
      "Ġmanaged": 5076,
      "Ġtong": 5077,
      "Ġnotes": 5078,
      "Ġdefe": 5079,
      "aced": 5080,
      "Ġshiv": 5081,
      "Ġdisabled": 5082,
      "Ġreser": 5083,
      "Ġguide": 5084,
      "Ġrefer": 5085,
      "Ġloading": 5086,
      "Ġbuttons": 5087,
      "sub": 5088,
      "Ġast": 5089,
      "ane": 5090,
      "Ġstages": 5091,
      "Ġproced": 5092,
      "Ġcongregation": 5093,
      "Ġtherein": 5094,
      "ously": 5095,
      "Ġsinger": 5096,
      "Ġauthorities": 5097,
      "Ġseeking": 5098,
      "switch": 5099,
      "Ġgarden": 5100,
      "Ġpred": 5101,
      "Ġpull": 5102,
      "ndra": 5103,
      "Ġstress": 5104,
      "reness": 5105,
      "Ġadvert": 5106,
      "Ġcloud": 5107,
      "Ġtestim": 5108,
      "Ġutter": 5109,
      "Ġconversation": 5110,
      "Ġfilename": 5111,
      "Ġinaug": 5112,
      "bruary": 5113,
      "Ġling": 5114,
      "ifies": 5115,
      "Ġrom": 5116,
      "loved": 5117,
      "Ġreaders": 5118,
      "Ġrelative": 5119,
      "Ġengaged": 5120,
      "everything": 5121,
      "Ġurl": 5122,
      "Ġidentity": 5123,
      "Ġdescription": 5124,
      "fin": 5125,
      "Ġcultural": 5126,
      "eds": 5127,
      "ager": 5128,
      "Ġinterests": 5129,
      "Ġlayout": 5130,
      "Ġappearance": 5131,
      "expected": 5132,
      "Ġintroduced": 5133,
      "Ġpixels": 5134,
      "father": 5135,
      "Ġfit": 5136,
      "Ġsale": 5137,
      "Ġscore": 5138,
      "Ġwriters": 5139,
      "ilead": 5140,
      "Ġfirstborn": 5141,
      "Ġunits": 5142,
      "Ġsinned": 5143,
      "Ġowned": 5144,
      "Ġcommunication": 5145,
      "Ġmurder": 5146,
      "Ġdemocratic": 5147,
      "Ġyoga": 5148,
      "istic": 5149,
      "Ġtransm": 5150,
      "Ġrecords": 5151,
      "Ġinspired": 5152,
      "Ġrepeated": 5153,
      "Ġexperts": 5154,
      "Ġalcohol": 5155,
      "Ġer": 5156,
      "Ġtap": 5157,
      "Ġnav": 5158,
      "Ġvia": 5159,
      "Ġrot": 5160,
      "Ġcompar": 5161,
      "Ġscene": 5162,
      "Ġtransform": 5163,
      "Ġswitch": 5164,
      "Ġphysically": 5165,
      "Ġtransportation": 5166,
      "chers": 5167,
      "Ġequipment": 5168,
      "bl": 5169,
      "rep": 5170,
      "Ġbeloved": 5171,
      "Ġfors": 5172,
      "Ġages": 5173,
      "Ġworldwide": 5174,
      "Ġ44": 5175,
      "2075": 5176,
      "Ġcontrovers": 5177,
      "Ġeuropean": 5178,
      "Ġscheme": 5179,
      "Ġsplit": 5180,
      "Ġbritish": 5181,
      "asseh": 5182,
      "four": 5183,
      "ray": 5184,
      "Ġinno": 5185,
      "Ġrebu": 5186,
      "Ġpartners": 5187,
      "Ġclos": 5188,
      "Ġhelpful": 5189,
      "Ġdesired": 5190,
      "teen": 5191,
      "Ġtoolbar": 5192,
      "Ġassociation": 5193,
      "Ġerr": 5194,
      "Ġtear": 5195,
      "inations": 5196,
      "icians": 5197,
      "Ġanaly": 5198,
      "Ġsoccer": 5199,
      "Ġadjust": 5200,
      "Ġoverwrite": 5201,
      "Ġpromote": 5202,
      "Ġlabour": 5203,
      "Ġleaves": 5204,
      "spec": 5205,
      "Ġjournalist": 5206,
      "Ġvessels": 5207,
      "sibilities": 5208,
      "pes": 5209,
      "ta": 5210,
      "Ġlest": 5211,
      "Ġprost": 5212,
      "Ġfebruary": 5213,
      "Ġjoint": 5214,
      "Ġinitially": 5215,
      "Ġexpanded": 5216,
      "Ġbranch": 5217,
      "mr": 5218,
      "Ġtip": 5219,
      "Ġborrow": 5220,
      "Ġfing": 5221,
      "Ġincense": 5222,
      "Ġfamine": 5223,
      "Ġlisted": 5224,
      "Ġleading": 5225,
      "Ġsolar": 5226,
      "Ġtemper": 5227,
      "Ġclasses": 5228,
      "Ġgerman": 5229,
      "Ġflee": 5230,
      "aac": 5231,
      "Ġsust": 5232,
      "ancy": 5233,
      "Ġhang": 5234,
      "Ġrebe": 5235,
      "Ġstuff": 5236,
      "Ġlabel": 5237,
      "Ġseeds": 5238,
      "Ġarchive": 5239,
      "15": 5240,
      "bled": 5241,
      "tax": 5242,
      "hak": 5243,
      "Ġcand": 5244,
      "Ġinqu": 5245,
      "Ġgilead": 5246,
      "Ġspo": 5247,
      "Ġarise": 5248,
      "Ġboys": 5249,
      "Ġextent": 5250,
      "Ġdestination": 5251,
      "Ġimprovement": 5252,
      "Ġfunds": 5253,
      "Ġrecognized": 5254,
      "Ġproposal": 5255,
      "lig": 5256,
      "Ġactor": 5257,
      "Ġfol": 5258,
      "ope": 5259,
      "Ġmexic": 5260,
      "Ġprove": 5261,
      "Ġtea": 5262,
      "Ġdocuments": 5263,
      "Ġopposed": 5264,
      "marks": 5265,
      "Ġscientists": 5266,
      "Ġpleasant": 5267,
      "Ġgalile": 5268,
      "Ġawareness": 5269,
      "imp": 5270,
      "Ġkar": 5271,
      "Ġlips": 5272,
      "Ġattribut": 5273,
      "Ġconfidence": 5274,
      "Ġreflect": 5275,
      "govern": 5276,
      "Ġrising": 5277,
      "Ġmixed": 5278,
      "uk": 5279,
      "Ġhated": 5280,
      "Ġorg": 5281,
      "Ġrates": 5282,
      "Ġquit": 5283,
      "ological": 5284,
      "Ġ1980": 5285,
      "Ġpatients": 5286,
      "Ġille": 5287,
      "Ġdisappointed": 5288,
      "Ġvolume": 5289,
      "Ġpanchayat": 5290,
      "Ġgreet": 5291,
      "vest": 5292,
      "Ġanal": 5293,
      "log": 5294,
      "Ġappoint": 5295,
      "Ġlistened": 5296,
      "Ġreceiving": 5297,
      "Ġviews": 5298,
      "Ġprotoc": 5299,
      "Ġexistence": 5300,
      "Ġtalks": 5301,
      "thanks": 5302,
      "Ġangels": 5303,
      "Ġrequirements": 5304,
      "Ġauthent": 5305,
      "Ġtill": 5306,
      "Ġunity": 5307,
      "Ġrare": 5308,
      "Ġacted": 5309,
      "Ġjoab": 5310,
      "Ġrequires": 5311,
      "Ġcharges": 5312,
      "Ġaccounts": 5313,
      "Ġstatistics": 5314,
      "Ġband": 5315,
      "Ġinner": 5316,
      "lear": 5317,
      "Ġgent": 5318,
      "alom": 5319,
      "Ġresear": 5320,
      "aches": 5321,
      "Ġmanasseh": 5322,
      "Ġagency": 5323,
      "Ġcalling": 5324,
      "Ġacting": 5325,
      "Ġlands": 5326,
      "Ġemb": 5327,
      "Ġconsult": 5328,
      "Ġflower": 5329,
      "Ġinstallation": 5330,
      "Ġinjury": 5331,
      "Ġlaunch": 5332,
      "Ġsudden": 5333,
      "Ġlicense": 5334,
      "Ġupper": 5335,
      "esty": 5336,
      "Ġmoves": 5337,
      "Ġkeyboard": 5338,
      "Ġcrash": 5339,
      "Ġfalls": 5340,
      "capital": 5341,
      "Ġcolumns": 5342,
      "Ġdetermine": 5343,
      "Ġtomorrow": 5344,
      "Ġinaugur": 5345,
      "none": 5346,
      "try": 5347,
      "asc": 5348,
      "osite": 5349,
      "igr": 5350,
      "Ġsole": 5351,
      "Ġclient": 5352,
      "Ġsupposed": 5353,
      "omatic": 5354,
      "Ġhindu": 5355,
      "Ġsavings": 5356,
      "dra": 5357,
      "him": 5358,
      "Ġrat": 5359,
      "Ġcompl": 5360,
      "Ġresist": 5361,
      "Ġowners": 5362,
      "osphere": 5363,
      "Ġelim": 5364,
      "Ġteaches": 5365,
      "Ġurged": 5366,
      "Ġearnings": 5367,
      "Ġhorizont": 5368,
      "Ġbri": 5369,
      "Ġhealed": 5370,
      "ulate": 5371,
      "Ġweren": 5372,
      "Ġsharing": 5373,
      "cons": 5374,
      "ysis": 5375,
      "Ġoperations": 5376,
      "Ġlabor": 5377,
      "Ġrevolution": 5378,
      "Ġassyria": 5379,
      "kar": 5380,
      "omb": 5381,
      "Ġring": 5382,
      "Ġshame": 5383,
      "Ġmarry": 5384,
      "Ġpoly": 5385,
      "Ġflag": 5386,
      "Ġdefense": 5387,
      "Ġspeaks": 5388,
      "Ġmainly": 5389,
      "Ġeducational": 5390,
      "Ġassum": 5391,
      "Ġ1991": 5392,
      "Ġfaithful": 5393,
      "Ġsamuel": 5394,
      "Ġadvantage": 5395,
      "Ġsunday": 5396,
      "Ġinaugurated": 5397,
      ").": 5398,
      "ell": 5399,
      "Ġmos": 5400,
      "Ġdub": 5401,
      "Ġhezekiah": 5402,
      "Ġseat": 5403,
      "astic": 5404,
      "force": 5405,
      "Ġfeas": 5406,
      "Ġapplied": 5407,
      "Ġqueen": 5408,
      "Ġrelevant": 5409,
      "Ġvector": 5410,
      "Ġexplained": 5411,
      "Ġidentified": 5412,
      "Ġachievement": 5413,
      "Ġpreparation": 5414,
      "Ġbranches": 5415,
      "Ġaccomplish": 5416,
      "Ġmachine": 5417,
      "Ġalternative": 5418,
      "Ġpandemic": 5419,
      "cles": 5420,
      "gree": 5421,
      "mat": 5422,
      "Ġought": 5423,
      "Ġbric": 5424,
      "Ġcd": 5425,
      "Ġloans": 5426,
      "Ġours": 5427,
      "Ġ43": 5428,
      "à¤¾": 5429,
      "Ġwatched": 5430,
      "Ġshop": 5431,
      "Ġmedicines": 5432,
      "Ġsamaria": 5433,
      "Ġtelephone": 5434,
      "Ġparticularly": 5435,
      "Ġhistoric": 5436,
      "Ġstrengthe": 5437,
      "Ġcomplicated": 5438,
      "gener": 5439,
      "Ġgur": 5440,
      "aling": 5441,
      "iment": 5442,
      "Ġonto": 5443,
      "Ġdem": 5444,
      "Ġnove": 5445,
      "Ġpreferences": 5446,
      "Ġpassengers": 5447,
      "Ġcrim": 5448,
      "Ġbelief": 5449,
      "Ġpainting": 5450,
      "Ġaddressed": 5451,
      "Ġpatient": 5452,
      "Ġfamiliar": 5453,
      "Ġclicking": 5454,
      "construction": 5455,
      "Ġaccomplished": 5456,
      "bon": 5457,
      "mus": 5458,
      "send": 5459,
      "Ġwo": 5460,
      "Ġthread": 5461,
      "ategy": 5462,
      "Ġhadn": 5463,
      "Ġcurse": 5464,
      "Ġpurs": 5465,
      "Ġimproving": 5466,
      "Ġphotograph": 5467,
      "fortun": 5468,
      "Ġgradually": 5469,
      "Ġfederal": 5470,
      "craft": 5471,
      "equ": 5472,
      "gon": 5473,
      "ja": 5474,
      "xim": 5475,
      "Ġeth": 5476,
      "Ġframes": 5477,
      "Ġotherwise": 5478,
      "Ġwhenever": 5479,
      "Ġundert": 5480,
      "Ġcurrency": 5481,
      "Ġswore": 5482,
      "Ġdispute": 5483,
      "Ġarrangements": 5484,
      "Ġcorner": 5485,
      "government": 5486,
      "fall": 5487,
      "po": 5488,
      "var": 5489,
      "wood": 5490,
      "itute": 5491,
      "Ġagencies": 5492,
      "Ġscre": 5493,
      "Ġpartner": 5494,
      "neither": 5495,
      "Ġtrail": 5496,
      "Ġlarger": 5497,
      "Ġsending": 5498,
      "Ġexception": 5499,
      "Ġelijah": 5500,
      "nesday": 5501,
      "500": 5502,
      "Ġstor": 5503,
      "Ġshout": 5504,
      "Ġretired": 5505,
      "Ġtelling": 5506,
      "cript": 5507,
      "Ġengland": 5508,
      "Ġrulers": 5509,
      "Ġfarmer": 5510,
      ".'\"": 5511,
      "Ġencouraged": 5512,
      "Ġcorporation": 5513,
      "Ġthreshold": 5514,
      "hum": 5515,
      "Ġbible": 5516,
      "Ġupload": 5517,
      "Ġprovision": 5518,
      "Ġflu": 5519,
      "Ġhoping": 5520,
      "Ġcapable": 5521,
      "Ġselling": 5522,
      "Ġsummer": 5523,
      "Ġsixt": 5524,
      "Ġlawyer": 5525,
      "Ġpharise": 5526,
      "Ġatmosphere": 5527,
      "Ġble": 5528,
      "Ġcash": 5529,
      "once": 5530,
      "ndom": 5531,
      "Ġprecious": 5532,
      "Ġreader": 5533,
      "Ġstrategy": 5534,
      "Ġsuccessfully": 5535,
      "amped": 5536,
      "Ġposted": 5537,
      "Ġhistorical": 5538,
      "iation": 5539,
      "Ġpm": 5540,
      "Ġdy": 5541,
      "icted": 5542,
      "Ġrede": 5543,
      "lymp": 5544,
      "terday": 5545,
      "Ġteeth": 5546,
      "apur": 5547,
      "wards": 5548,
      "Ġaspects": 5549,
      "Ġton": 5550,
      "Ġpow": 5551,
      "Ġnaked": 5552,
      "Ġabund": 5553,
      "udi": 5554,
      "Ġmodified": 5555,
      "Ġrestore": 5556,
      "Ġdetailed": 5557,
      "Ġinterview": 5558,
      "Ġshoot": 5559,
      "remember": 5560,
      "Ġinspir": 5561,
      "Ġsuspended": 5562,
      "Ġencourage": 5563,
      "Ġpollution": 5564,
      "Ġrecip": 5565,
      "Ġbones": 5566,
      "Ġnur": 5567,
      "Ġbeg": 5568,
      "Ġstable": 5569,
      "aps": 5570,
      "Ġoffers": 5571,
      "Ġshek": 5572,
      "Ġbrass": 5573,
      "Ġretrie": 5574,
      "Ġdestruction": 5575,
      "Ġslain": 5576,
      "Ġdivision": 5577,
      "Ġsales": 5578,
      "Ġborders": 5579,
      "Ġweapons": 5580,
      "Ġnutr": 5581,
      "Ġnovember": 5582,
      "phat": 5583,
      "orter": 5584,
      "ceived": 5585,
      "Ġ47": 5586,
      "Ġ2019": 5587,
      "Ġdischar": 5588,
      "Ġparamet": 5589,
      "Ġpaint": 5590,
      "Ġphotogra": 5591,
      "attered": 5592,
      "Ġbaal": 5593,
      "Ġconsumers": 5594,
      "Ġwednesday": 5595,
      "Ġpossession": 5596,
      "Ġbelongs": 5597,
      "Ġstrengthen": 5598,
      "Ġdemonstr": 5599,
      "Ġolymp": 5600,
      "Ġsorrow": 5601,
      "Ġlu": 5602,
      "Ġnotice": 5603,
      "Ġneb": 5604,
      "Ġsaints": 5605,
      "Ġtruck": 5606,
      "Ġactress": 5607,
      "Ġguest": 5608,
      "cribe": 5609,
      "Ġtrend": 5610,
      "Ġtourist": 5611,
      "Ġterai": 5612,
      "Ġredeem": 5613,
      "ijah": 5614,
      "mic": 5615,
      "rb": 5616,
      "Ġsid": 5617,
      "Ġfert": 5618,
      "theless": 5619,
      "Ġongoing": 5620,
      "Ġweep": 5621,
      "Ġworst": 5622,
      "rene": 5623,
      "Ġentr": 5624,
      "Ġlocations": 5625,
      "Ġruler": 5626,
      "Ġaudience": 5627,
      "Ġworthy": 5628,
      "iciency": 5629,
      "Ġcorruption": 5630,
      "part": 5631,
      "Ġgree": 5632,
      "Ġbookmarks": 5633,
      "Ġintell": 5634,
      "Ġfunctions": 5635,
      "Ġvoices": 5636,
      "Ġexpecting": 5637,
      "à¥į": 5638,
      "Ġgarments": 5639,
      "Ġdesolate": 5640,
      "Ġtestimony": 5641,
      "pass": 5642,
      "hal": 5643,
      "Ġgam": 5644,
      "osion": 5645,
      "Ġliqu": 5646,
      "izes": 5647,
      "Ġleads": 5648,
      "Ġmemor": 5649,
      "Ġadministrator": 5650,
      "Ġintegrated": 5651,
      "Ġordinances": 5652,
      "close": 5653,
      "aded": 5654,
      "alled": 5655,
      "Ġliber": 5656,
      "Ġrap": 5657,
      "enses": 5658,
      "Ġends": 5659,
      "Ġcommands": 5660,
      "Ġmeters": 5661,
      "Ġfeelings": 5662,
      "Ġburning": 5663,
      "Ġchallenging": 5664,
      "Ġlifet": 5665,
      "Ġwalls": 5666,
      "Ġrecommend": 5667,
      "Ġcursor": 5668,
      "Ġtissue": 5669,
      "ladesh": 5670,
      "Ġ[": 5671,
      "Ġlying": 5672,
      "Ġgoogle": 5673,
      "Ġnobody": 5674,
      "Ġopens": 5675,
      "Ġretire": 5676,
      "Ġinvested": 5677,
      "Ġaircraft": 5678,
      "john": 5679,
      "perhaps": 5680,
      "Ġrespectively": 5681,
      "disable": 5682,
      "Ġjonathan": 5683,
      "Ġtongue": 5684,
      "Ġcandid": 5685,
      "Ġ`": 5686,
      "Ġgif": 5687,
      "Ġkil": 5688,
      "rix": 5689,
      "activ": 5690,
      "Ġforeigners": 5691,
      "Ġprivacy": 5692,
      "Ġcorrectly": 5693,
      "Ġadministrative": 5694,
      "Ġhectares": 5695,
      "Ġmexico": 5696,
      "Ġlifetime": 5697,
      "hem": 5698,
      "Ġsar": 5699,
      "Ġbreat": 5700,
      "Ġisaac": 5701,
      "lech": 5702,
      "Ġhoney": 5703,
      "several": 5704,
      "Ġproceed": 5705,
      "cket": 5706,
      "Ġ42": 5707,
      "Ġbug": 5708,
      "Ġefficient": 5709,
      "Ġrecurrent": 5710,
      "Ġcompletion": 5711,
      "Ġsolutions": 5712,
      "Ġofficially": 5713,
      "Ġshortcut": 5714,
      "Ġspiritual": 5715,
      "apply": 5716,
      "Ġcaptains": 5717,
      "Ġmurdered": 5718,
      "Ġchariots": 5719,
      "Ġerrors": 5720,
      "gra": 5721,
      "lam": 5722,
      "off": 5723,
      "Ġtro": 5724,
      "Ġju": 5725,
      "Ġrepro": 5726,
      "Ġcompetitive": 5727,
      "Ġloaded": 5728,
      "Ġdamaged": 5729,
      "Ġenjoyed": 5730,
      "Ġharmful": 5731,
      "Ġroute": 5732,
      "bc": 5733,
      "rec": 5734,
      "eror": 5735,
      "icy": 5736,
      "secut": 5737,
      "Ġplenty": 5738,
      "Ġlocked": 5739,
      "ably": 5740,
      "Ġunemploy": 5741,
      "aph": 5742,
      "Ġshepher": 5743,
      "ughter": 5744,
      "Ġcontrolled": 5745,
      "Ġprinting": 5746,
      "Ġcooperative": 5747,
      "Ġdownloaded": 5748,
      "Ġresolve": 5749,
      "aur": 5750,
      "je": 5751,
      "ĠâĢ": 5752,
      "Ġwings": 5753,
      "Ġsri": 5754,
      "Ġdim": 5755,
      "Ġgall": 5756,
      "Ġeternal": 5757,
      "Ġupgr": 5758,
      "Ġoverall": 5759,
      "Ġattach": 5760,
      "Ġoblig": 5761,
      "âĢĿ": 5762,
      "Ġenvironmental": 5763,
      "Ġprinted": 5764,
      "students": 5765,
      "Ġpharisees": 5766,
      "rish": 5767,
      "Ġhung": 5768,
      "uted": 5769,
      "Ġthick": 5770,
      "Ġcere": 5771,
      "Ġfaces": 5772,
      "Ġrisks": 5773,
      "Ġlistening": 5774,
      "works": 5775,
      "Ġcultiv": 5776,
      "Ġprotocol": 5777,
      "Ġscreens": 5778,
      "wind": 5779,
      "Ġgand": 5780,
      "Ġgained": 5781,
      "otes": 5782,
      "Ġproved": 5783,
      "Ġexcess": 5784,
      "ours": 5785,
      "Ġscattered": 5786,
      "Ġ300": 5787,
      "Ġwarm": 5788,
      "Ġmodule": 5789,
      "Ġvariable": 5790,
      "Ġbelieves": 5791,
      "Ġoperated": 5792,
      "Ġflock": 5793,
      "Ġparticipants": 5794,
      "Ġregularly": 5795,
      "Ġargument": 5796,
      "Ġterrif": 5797,
      "Ġvertical": 5798,
      "ky": 5799,
      "mir": 5800,
      "vis": 5801,
      "Ġexit": 5802,
      "Ġentries": 5803,
      "Ġpublish": 5804,
      "Ġobtained": 5805,
      "Ġguess": 5806,
      "Ġeducated": 5807,
      "everybody": 5808,
      "Ġtotally": 5809,
      "Ġconsumption": 5810,
      "Ġpractical": 5811,
      "Ġwickedness": 5812,
      "Ġindividuals": 5813,
      "Ġindependent": 5814,
      "Ġexercise": 5815,
      "fam": 5816,
      "pers": 5817,
      "tha": 5818,
      "Ġgdp": 5819,
      "Ġht": 5820,
      "etic": 5821,
      "ils": 5822,
      "Ġproof": 5823,
      "Ġprocl": 5824,
      "Ġconver": 5825,
      "Ġsport": 5826,
      "Ġteen": 5827,
      "Ġbutter": 5828,
      "Ġschol": 5829,
      "Ġconflict": 5830,
      "Ġdepth": 5831,
      "Ġsmart": 5832,
      "Ġfoods": 5833,
      "Ġrealize": 5834,
      "Ġpostp": 5835,
      "Ġburden": 5836,
      "Ġesau": 5837,
      "Ġpaths": 5838,
      "ursday": 5839,
      "Ġbike": 5840,
      "sequently": 5841,
      "Ġgalilee": 5842,
      "hide": 5843,
      "ipe": 5844,
      "Ġtomb": 5845,
      "Ġdu": 5846,
      "Ġthursday": 5847,
      "Ġdoors": 5848,
      "Ġscroll": 5849,
      "about": 5850,
      "Ġpoems": 5851,
      "uesday": 5852,
      "Ġvoc": 5853,
      "Ġdealt": 5854,
      "Ġidols": 5855,
      "construct": 5856,
      "Ġupdate": 5857,
      "Ġafghanistan": 5858,
      "ping": 5859,
      "tered": 5860,
      "Ġward": 5861,
      "hari": 5862,
      "Ġfuel": 5863,
      "Ġworse": 5864,
      "Ġmere": 5865,
      "ulations": 5866,
      "Ġvac": 5867,
      "Ġgovernments": 5868,
      "Ġ49": 5869,
      "Ġrelief": 5870,
      "iped": 5871,
      "Ġcaptivity": 5872,
      "Ġblessing": 5873,
      "Ġlift": 5874,
      "Ġyesterday": 5875,
      "Ġbesides": 5876,
      "Ġpurchased": 5877,
      "Ġanalysis": 5878,
      "hus": 5879,
      "Ġfans": 5880,
      "onts": 5881,
      "Ġneck": 5882,
      "Ġmeat": 5883,
      "ective": 5884,
      "Ġintended": 5885,
      "Ġcoast": 5886,
      "Ġactual": 5887,
      "Ġ2003": 5888,
      "tell": 5889,
      "Ġpainful": 5890,
      "Ġpromised": 5891,
      "tenance": 5892,
      "Ġwinter": 5893,
      "Ġinfluenced": 5894,
      "Ġvaccine": 5895,
      "Ġviney": 5896,
      "Ġencoding": 5897,
      "Ġtha": 5898,
      "Ġtuesday": 5899,
      "Ġwage": 5900,
      "Ġner": 5901,
      "Ġyield": 5902,
      "Ġsees": 5903,
      "Ġspring": 5904,
      "Ġnoise": 5905,
      "Ġgrass": 5906,
      "Ġsimpl": 5907,
      "Ġglass": 5908,
      "Ġegyptians": 5909,
      "Ġclubs": 5910,
      "speak": 5911,
      "Ġwitnesses": 5912,
      "Ġforgot": 5913,
      "follow": 5914,
      "Ġlady": 5915,
      "fil": 5916,
      "sal": 5917,
      "Ġsir": 5918,
      "Ġlakh": 5919,
      "oti": 5920,
      "ician": 5921,
      "Ġitaly": 5922,
      "Ġanx": 5923,
      "Ġconvert": 5924,
      "Ġabort": 5925,
      "Ġclar": 5926,
      "Ġraw": 5927,
      "Ġrestrict": 5928,
      "Ġyounger": 5929,
      "ifying": 5930,
      "Ġcommunist": 5931,
      "Ġtabern": 5932,
      "Ġclaims": 5933,
      "Ġcontribution": 5934,
      "Ġvehicles": 5935,
      "Ġtabernacle": 5936,
      "later": 5937,
      "would": 5938,
      "Ġfright": 5939,
      "Ġpas": 5940,
      "Ġtower": 5941,
      "Ġhorn": 5942,
      "imal": 5943,
      "Ġprem": 5944,
      "Ġbookmark": 5945,
      "Ġmaintenance": 5946,
      "Ġkeeps": 5947,
      "Ġ2068": 5948,
      "Ġequally": 5949,
      "Ġsufficient": 5950,
      "Ġcarrying": 5951,
      "Ġrecognize": 5952,
      "zzar": 5953,
      "warning": 5954,
      "Ġpilot": 5955,
      "pres": 5956,
      "Ġtons": 5957,
      "Ġtheat": 5958,
      "Ġdies": 5959,
      "Ġlion": 5960,
      "Ġloud": 5961,
      "high": 5962,
      "Ġfriendly": 5963,
      "Ġsecondary": 5964,
      "Ġzone": 5965,
      "Ġmajesty": 5966,
      "Ġveget": 5967,
      "Ġordinary": 5968,
      "Ġanti": 5969,
      "Ġabsalom": 5970,
      "Ġpermanently": 5971,
      "Ġcomponent": 5972,
      "Ġexceeding": 5973,
      "reprene": 5974,
      "?'": 5975,
      "Ġhaz": 5976,
      "Ġec": 5977,
      "Ġstir": 5978,
      "Ġthumb": 5979,
      "ula": 5980,
      "Ġshah": 5981,
      "ensity": 5982,
      "Ġnorthern": 5983,
      "Ġheader": 5984,
      "Ġorganis": 5985,
      "Ġprotected": 5986,
      "Ġcondem": 5987,
      "Ġ2050": 5988,
      "Ġemployee": 5989,
      "loading": 5990,
      "Ġencryption": 5991,
      "Ġfoolish": 5992,
      "Ġpokhara": 5993,
      "Ġillegal": 5994,
      "\"'": 5995,
      "bus": 5996,
      "lah": 5997,
      "pet": 5998,
      "Ġwik": 5999,
      "ota": 6000,
      "Ġvote": 6001,
      "Ġoffline": 6002,
      "Ġ193": 6003,
      "Ġentreprene": 6004,
      "Ġinvited": 6005,
      "active": 6006,
      "Ġedom": 6007,
      "Ġpair": 6008,
      "Ġ2004": 6009,
      "Ġrepay": 6010,
      "Ġextract": 6011,
      "Ġadvanced": 6012,
      "Ġdeclare": 6013,
      "Ġelder": 6014,
      "Ġlamb": 6015,
      "Ġresponded": 6016,
      "Ġdropped": 6017,
      "Ġevaluation": 6018,
      "Ġstraight": 6019,
      "group": 6020,
      "say": 6021,
      "rection": 6022,
      "asad": 6023,
      "were": 6024,
      "une": 6025,
      "Ġmaybe": 6026,
      "ipur": 6027,
      "Ġmatters": 6028,
      "Ġmatrix": 6029,
      "Ġsmoke": 6030,
      "Ġrepublic": 6031,
      "Ġbringing": 6032,
      "Ġjero": 6033,
      "Ġencamped": 6034,
      "coming": 6035,
      "Ġopposite": 6036,
      "Ġdepending": 6037,
      "Ġdependent": 6038,
      "Ġamazed": 6039,
      "Ġcommitment": 6040,
      "Ġsubsid": 6041,
      "japan": 6042,
      "Ġbind": 6043,
      "Ġlank": 6044,
      "Ġapps": 6045,
      "Ġrace": 6046,
      "anged": 6047,
      "Ġgrid": 6048,
      "Ġattended": 6049,
      "Ġcourts": 6050,
      "Ġafflict": 6051,
      "Ġfeels": 6052,
      "Ġvirgin": 6053,
      "Ġoriginally": 6054,
      "Ġestablishment": 6055,
      "Ġcycle": 6056,
      "Ġdefinite": 6057,
      "Ġbangladesh": 6058,
      "bre": 6059,
      "dr": 6060,
      "Ġrenew": 6061,
      "Ġanointed": 6062,
      "Ġsand": 6063,
      "Ġperish": 6064,
      "Ġherself": 6065,
      "Ġrandom": 6066,
      "Ġmonthly": 6067,
      "Ġprovin": 6068,
      "Ġministers": 6069,
      "Ġmessengers": 6070,
      "Ġacad": 6071,
      "Ġsilence": 6072,
      "Ġconfigure": 6073,
      "Ġannounce": 6074,
      "Ġunclear": 6075,
      "Ġmotiv": 6076,
      "Ġdaniel": 6077,
      "respond": 6078,
      "Ġflying": 6079,
      "Ġprophesy": 6080,
      "Ġmotorcy": 6081,
      "Ġsuddenly": 6082,
      "26": 6083,
      "rid": 6084,
      "sm": 6085,
      "Ġtresp": 6086,
      "Ġsmo": 6087,
      "Ġcra": 6088,
      "Ġmand": 6089,
      "Ġpsy": 6090,
      "Ġgad": 6091,
      "icing": 6092,
      "Ġwithdraw": 6093,
      "Ġens": 6094,
      "Ġoverse": 6095,
      "Ġ65": 6096,
      "Ġsupporting": 6097,
      "Ġ2005": 6098,
      "Ġextend": 6099,
      "Ġmoments": 6100,
      "Ġpromise": 6101,
      "Ġentering": 6102,
      "Ġcommunities": 6103,
      "Ġicons": 6104,
      "Ġcoordination": 6105,
      "currently": 6106,
      "Ġgifts": 6107,
      "Ġtrespass": 6108,
      "ki": 6109,
      "miss": 6110,
      "Ġdiction": 6111,
      "Ġnuc": 6112,
      "hist": 6113,
      "Ġrows": 6114,
      "Ġleban": 6115,
      "Ġwherever": 6116,
      "Ġobvious": 6117,
      "Ġconstant": 6118,
      "à¤°": 6119,
      "Ġ2063": 6120,
      "Ġpeaceful": 6121,
      "Ġholding": 6122,
      "Ġmercha": 6123,
      "Ġmailbox": 6124,
      "Ġinstitute": 6125,
      "Ġmanufacture": 6126,
      "Ġrailway": 6127,
      "Ġpillars": 6128,
      "Ġundertaken": 6129,
      "Ġproclaim": 6130,
      "Ġtaste": 6131,
      "ayan": 6132,
      "estyle": 6133,
      "Ġexhib": 6134,
      "oked": 6135,
      "Ġunus": 6136,
      "Ġmarked": 6137,
      "Ġdonkey": 6138,
      "Ġminor": 6139,
      "Ġattached": 6140,
      "Ġbackup": 6141,
      "Ġflat": 6142,
      "Ġdiscovered": 6143,
      "Ġviewed": 6144,
      "Ġwaves": 6145,
      "Ġ2067": 6146,
      "Ġsettled": 6147,
      "solute": 6148,
      "standing": 6149,
      "five": 6150,
      "Ġpoured": 6151,
      "Ġder": 6152,
      "sets": 6153,
      "ira": 6154,
      "Ġash": 6155,
      "ops": 6156,
      "Ġshell": 6157,
      "Ġnumbered": 6158,
      "Ġpercentage": 6159,
      "Ġconstantly": 6160,
      "Ġ2002": 6161,
      "Ġbasket": 6162,
      "Ġbanking": 6163,
      "Ġdriven": 6164,
      "Ġdriving": 6165,
      "Ġvirt": 6166,
      "Ġessence": 6167,
      "Ġsuggested": 6168,
      "besides": 6169,
      "Ġsacrifices": 6170,
      "Ġenhance": 6171,
      "Ġrapid": 6172,
      "rishna": 6173,
      "ae": 6174,
      "ka": 6175,
      "rison": 6176,
      "Ġfired": 6177,
      "Ġcattle": 6178,
      "Ġmac": 6179,
      "Ġduration": 6180,
      "Ġwelf": 6181,
      "oking": 6182,
      "Ġscar": 6183,
      "Ġdisaster": 6184,
      "Ġserving": 6185,
      "Ġ400": 6186,
      "Ġsentenced": 6187,
      "mean": 6188,
      "Ġguy": 6189,
      "Ġclosely": 6190,
      "Ġira": 6191,
      "clear": 6192,
      "Ġreturns": 6193,
      "Ġdescribe": 6194,
      "Ġdetermines": 6195,
      "aysia": 6196,
      "Ġgranted": 6197,
      "Ġstorage": 6198,
      "Ġwelfare": 6199,
      "24": 6200,
      "hor": 6201,
      "sing": 6202,
      "xy": 6203,
      "Ġaz": 6204,
      "Ġfresh": 6205,
      "Ġcher": 6206,
      "Ġnoted": 6207,
      "irt": 6208,
      "Ġstead": 6209,
      "iff": 6210,
      "Ġthrow": 6211,
      "unk": 6212,
      "agers": 6213,
      "Ġdecline": 6214,
      "Ġediting": 6215,
      "Ġcorrespond": 6216,
      "Ġinvestors": 6217,
      "Ġlifestyle": 6218,
      "should": 6219,
      "Ġreaching": 6220,
      "Ġdiagram": 6221,
      "Ġbon": 6222,
      "Ġbbc": 6223,
      "Ġnin": 6224,
      "Ġken": 6225,
      "Ġplain": 6226,
      "apore": 6227,
      "apart": 6228,
      "Ġsets": 6229,
      "Ġworksp": 6230,
      "Ġ2057": 6231,
      "Ġinvolve": 6232,
      "mony": 6233,
      "Ġpane": 6234,
      "Ġattacked": 6235,
      "Ġwishes": 6236,
      "Ġjournalists": 6237,
      "Ġbroadcast": 6238,
      "Ġresidents": 6239,
      "Ġwelcome": 6240,
      "Ġlanka": 6241,
      "ders": 6242,
      "enth": 6243,
      "Ġstro": 6244,
      "iling": 6245,
      "Ġdegree": 6246,
      "Ġsaudi": 6247,
      "Ġabsolute": 6248,
      "agues": 6249,
      "Ġdisable": 6250,
      "Ġcontr": 6251,
      "Ġclosing": 6252,
      "Ġoldest": 6253,
      "necess": 6254,
      "Ġbride": 6255,
      "Ġrespected": 6256,
      "Ġharvest": 6257,
      "Ġcrops": 6258,
      "Ġparse": 6259,
      "Ġguid": 6260,
      "Ġoccup": 6261,
      "Ġinterface": 6262,
      "Ġ2058": 6263,
      "Ġwinning": 6264,
      "Ġhundreds": 6265,
      "Ġmatching": 6266,
      "Ġquarter": 6267,
      "Ġtemperature": 6268,
      "Ġretirement": 6269,
      "Ġ`'": 6270,
      "Ġscholars": 6271,
      "uations": 6272,
      "rol": 6273,
      "Ġkon": 6274,
      "Ġasian": 6275,
      "abul": 6276,
      "Ġfee": 6277,
      "Ġrelatives": 6278,
      "Ġ2069": 6279,
      "Ġtouched": 6280,
      "Ġcritical": 6281,
      "Ġvictims": 6282,
      "family": 6283,
      "aam": 6284,
      "lord": 6285,
      "press": 6286,
      "Ġdying": 6287,
      "Ġgrie": 6288,
      "Ġmostly": 6289,
      "Ġwarned": 6290,
      "Ġ2001": 6291,
      "Ġcalcul": 6292,
      "Ġexplosion": 6293,
      "Ġsubjects": 6294,
      "ktapur": 6295,
      "Ġexecutive": 6296,
      "Ġlinen": 6297,
      "Ġreferred": 6298,
      "Ġterrified": 6299,
      "Ġjeroboam": 6300,
      "bha": 6301,
      "give": 6302,
      "sam": 6303,
      "Ġsadd": 6304,
      "Ġmart": 6305,
      "Ġdrew": 6306,
      "ura": 6307,
      "Ġsear": 6308,
      "ifier": 6309,
      "Ġven": 6310,
      "Ġplague": 6311,
      "ustr": 6312,
      "Ġprasad": 6313,
      "Ġadvers": 6314,
      "Ġtrained": 6315,
      "Ġflour": 6316,
      "Ġeastern": 6317,
      "Ġfriendship": 6318,
      "Ġstrange": 6319,
      "Ġsingh": 6320,
      "Ġtrem": 6321,
      "Ġprofess": 6322,
      "Ġ2060": 6323,
      "Ġawarded": 6324,
      "Ġdebate": 6325,
      "Ġchapter": 6326,
      "Ġdubai": 6327,
      "),": 6328,
      "28": 6329,
      "bi": 6330,
      "pret": 6331,
      "itled": 6332,
      "irala": 6333,
      "Ġipl": 6334,
      "Ġexper": 6335,
      "Ġunf": 6336,
      "Ġprefer": 6337,
      "Ġdesc": 6338,
      "Ġdefend": 6339,
      "Ġconstit": 6340,
      "Ġstrateg": 6341,
      "Ġextensive": 6342,
      "Ġ2066": 6343,
      "Ġcontaining": 6344,
      "Ġaspect": 6345,
      "Ġlebanon": 6346,
      "bid": 6347,
      "nant": 6348,
      "Ġfrequ": 6349,
      "eria": 6350,
      "owing": 6351,
      "Ġrename": 6352,
      "urning": 6353,
      "Ġanyway": 6354,
      "Ġsomewhere": 6355,
      "Ġwomb": 6356,
      "Ġ46": 6357,
      "Ġnepalgunj": 6358,
      "Ġsyria": 6359,
      "ensus": 6360,
      "Ġdiscl": 6361,
      "Ġgenerated": 6362,
      "Ġsla": 6363,
      "Ġ2052": 6364,
      "Ġseventy": 6365,
      "Ġprayed": 6366,
      "Ġgeograph": 6367,
      "Ġobserve": 6368,
      "training": 6369,
      "Ġriches": 6370,
      "Ġcircumst": 6371,
      "Ġutterly": 6372,
      "iest": 6373,
      "zy": 6374,
      "Ġcin": 6375,
      "itan": 6376,
      "itage": 6377,
      "sect": 6378,
      "raj": 6379,
      "Ġgoat": 6380,
      "Ġvan": 6381,
      "Ġexal": 6382,
      "Ġarmed": 6383,
      "Ġprize": 6384,
      "Ġsouls": 6385,
      "Ġchest": 6386,
      "Ġinfection": 6387,
      "Ġsingapore": 6388,
      "goes": 6389,
      "comm": 6390,
      "Ġhumanity": 6391,
      "Ġcontacts": 6392,
      "Ġoriented": 6393,
      "Ġarms": 6394,
      "Ġconfigured": 6395,
      "Ġbreadth": 6396,
      "Ġcircle": 6397,
      "Ġmalaysia": 6398,
      "Ġattractive": 6399,
      "Ġsharp": 6400,
      "Ġappreciated": 6401,
      "Ġhydro": 6402,
      "Ġcontroversy": 6403,
      "Ġdynam": 6404,
      "Ġdictionary": 6405,
      "gl": 6406,
      "Ġease": 6407,
      "image": 6408,
      "Ġalpha": 6409,
      "Ġnoah": 6410,
      "Ġobtain": 6411,
      "Ġpassph": 6412,
      "Ġ85": 6413,
      "Ġcrown": 6414,
      "Ġsugar": 6415,
      "Ġdiet": 6416,
      "trump": 6417,
      "Ġescaped": 6418,
      "Ġattracted": 6419,
      "Ġcomfortable": 6420,
      "Ġdefinition": 6421,
      "Ġgibe": 6422,
      "Ġassumed": 6423,
      "actions": 6424,
      "nament": 6425,
      "van": 6426,
      "hel": 6427,
      "Ġfier": 6428,
      "Ġmum": 6429,
      "Ġmission": 6430,
      "Ġphas": 6431,
      "Ġpicked": 6432,
      "Ġnoticed": 6433,
      "Ġamor": 6434,
      "Ġexports": 6435,
      "Ġcoach": 6436,
      "Ġemotion": 6437,
      "Ġconser": 6438,
      "Ġforeigner": 6439,
      "automatically": 6440,
      "Ġdiscipl": 6441,
      "Ġinjuries": 6442,
      "Ġimmediate": 6443,
      "Ġpraised": 6444,
      "shaphat": 6445,
      "Ġrepresentatives": 6446,
      "Ġzoom": 6447,
      "Ġprocedure": 6448,
      "finally": 6449,
      "Ġbutterf": 6450,
      "gar": 6451,
      "rd": 6452,
      "Ġod": 6453,
      "hary": 6454,
      "Ġbars": 6455,
      "Ġcave": 6456,
      "Ġisol": 6457,
      "Ġalt": 6458,
      "Ġrice": 6459,
      "onement": 6460,
      "Ġanymore": 6461,
      "Ġchances": 6462,
      "Ġimports": 6463,
      "Ġrestart": 6464,
      "imelech": 6465,
      "Ġ1999": 6466,
      "Ġwinner": 6467,
      "Ġfalling": 6468,
      "Ġlatest": 6469,
      "Ġlucky": 6470,
      "Ġpermanent": 6471,
      "Ġinstitutional": 6472,
      "Ġsquare": 6473,
      "Ġorganisations": 6474,
      "Ġticket": 6475,
      "init": 6476,
      "Ġoce": 6477,
      "Ġbomb": 6478,
      "Ġkim": 6479,
      "Ġangle": 6480,
      "Ġvary": 6481,
      "Ġfilters": 6482,
      "Ġaccur": 6483,
      "Ġdesires": 6484,
      "Ġreliable": 6485,
      "Ġpersonally": 6486,
      "Ġinstance": 6487,
      "Ġtransparent": 6488,
      "Ġreceives": 6489,
      "Ġprocessing": 6490,
      "Ġ2059": 6491,
      "Ġcustody": 6492,
      "Ġflocks": 6493,
      "Ġcommunic": 6494,
      "Ġgraduated": 6495,
      "Ġbitter": 6496,
      "Ġforgiven": 6497,
      "Ġcanceled": 6498,
      "Ġprincipal": 6499,
      "Ġcriminal": 6500,
      "Ġmerely": 6501,
      "Ġsmooth": 6502,
      "ca": 6503,
      "dep": 6504,
      "ea": 6505,
      "ev": 6506,
      "house": 6507,
      "nels": 6508,
      "hamed": 6509,
      "Ġfonts": 6510,
      "Ġcatch": 6511,
      "Ġmut": 6512,
      "Ġpour": 6513,
      "ley": 6514,
      "Ġreaction": 6515,
      "queror": 6516,
      "abilities": 6517,
      "ateral": 6518,
      "hesh": 6519,
      "Ġmarketing": 6520,
      "Ġmetric": 6521,
      "à¤¨": 6522,
      "someone": 6523,
      "Ġvisitors": 6524,
      "Ġtargets": 6525,
      "Ġphilipp": 6526,
      "Ġconsidering": 6527,
      "Ġbeside": 6528,
      "Ġsucceeded": 6529,
      "Ġsenior": 6530,
      "Ġmicro": 6531,
      "Ġsummit": 6532,
      "Ġsustain": 6533,
      ",'": 6534,
      "net": 6535,
      "Ġbid": 6536,
      "Ġcab": 6537,
      "iring": 6538,
      "iran": 6539,
      "Ġstrict": 6540,
      "chron": 6541,
      "Ġvain": 6542,
      "Ġrod": 6543,
      "Ġconsent": 6544,
      "Ġnorm": 6545,
      "phot": 6546,
      "type": 6547,
      "Ġcentres": 6548,
      "Ġprocession": 6549,
      "Ġgenerally": 6550,
      "whoever": 6551,
      "azar": 6552,
      "Ġadvised": 6553,
      "Ġstronger": 6554,
      "Ġcommunicate": 6555,
      "Ġdraft": 6556,
      "Ġdrawing": 6557,
      "Ġtenth": 6558,
      "Ġengineer": 6559,
      "Ġemphasis": 6560,
      "Ġfinger": 6561,
      "Ġbreath": 6562,
      "hma": 6563,
      "Ġlod": 6564,
      "always": 6565,
      "Ġmechan": 6566,
      "Ġdog": 6567,
      "Ġshif": 6568,
      "nezzar": 6569,
      "uchad": 6570,
      "Ġguar": 6571,
      "Ġcarefully": 6572,
      "Ġtrial": 6573,
      "Ġconnections": 6574,
      "Ġreplied": 6575,
      "trans": 6576,
      "Ġtroubled": 6577,
      "Ġbuddha": 6578,
      "connect": 6579,
      "Ġkoirala": 6580,
      "Ġpunishment": 6581,
      "Ġpostponed": 6582,
      "uchadnezzar": 6583,
      "phas": 6584,
      "wan": 6585,
      "Ġsnow": 6586,
      "Ġbh": 6587,
      "Ġfurn": 6588,
      "oration": 6589,
      "Ġdress": 6590,
      "Ġrent": 6591,
      "among": 6592,
      "Ġstorm": 6593,
      "Ġproxy": 6594,
      "Ġvast": 6595,
      "Ġunexpected": 6596,
      "Ġheritage": 6597,
      "izer": 6598,
      "Ġremnant": 6599,
      "Ġearned": 6600,
      "Ġbrush": 6601,
      "angers": 6602,
      "Ġconsists": 6603,
      "Ġmodify": 6604,
      "Ġcrop": 6605,
      "Ġcontinually": 6606,
      "Ġinterpret": 6607,
      "Ġ2061": 6608,
      "Ġ2062": 6609,
      "Ġ2054": 6610,
      "Ġoccurs": 6611,
      "Ġpayment": 6612,
      "Ġkilling": 6613,
      "Ġdemanded": 6614,
      "Ġappeal": 6615,
      "Ġafrican": 6616,
      "Ġliquid": 6617,
      "Ġfrightened": 6618,
      "Ġunusual": 6619,
      "Ġcircumstances": 6620,
      "27": 6621,
      "ming": 6622,
      "nagar": 6623,
      "rant": 6624,
      "Ġstruct": 6625,
      "ilit": 6626,
      "unknown": 6627,
      "ustom": 6628,
      "lette": 6629,
      "Ġprojected": 6630,
      "Ġrestored": 6631,
      "Ġcenters": 6632,
      "Ġunto": 6633,
      "Ġ150": 6634,
      "Ġproductivity": 6635,
      "Ġ2053": 6636,
      "Ġenterpr": 6637,
      "Ġeffectively": 6638,
      "Ġexciting": 6639,
      "Ġentirely": 6640,
      "Ġmagaz": 6641,
      "Ġworshiped": 6642,
      "success": 6643,
      "Ġobserved": 6644,
      "Ġzeal": 6645,
      "Ġreforms": 6646,
      "Ġwearing": 6647,
      "Ġconsciousness": 6648,
      "Ġprostitute": 6649,
      "music": 6650,
      "dess": 6651,
      "further": 6652,
      "jos": 6653,
      "lines": 6654,
      "oso": 6655,
      "hear": 6656,
      "hand": 6657,
      "Ġbell": 6658,
      "through": 6659,
      "Ġusage": 6660,
      "Ġatonement": 6661,
      "Ġvice": 6662,
      "Ġchamp": 6663,
      "Ġsyri": 6664,
      "restha": 6665,
      "Ġobst": 6666,
      "Ġresponsibilities": 6667,
      "Ġsolved": 6668,
      "Ġapost": 6669,
      "nali": 6670,
      "Ġarranged": 6671,
      "support": 6672,
      "Ġpalace": 6673,
      "Ġinitiated": 6674,
      "Ġwelcom": 6675,
      "Ġdelighted": 6676,
      "Ġzero": 6677,
      "Ġdefinitely": 6678,
      "gments": 6679,
      "phan": 6680,
      "Ġchose": 6681,
      "itory": 6682,
      "user": 6683,
      "Ġasc": 6684,
      "Ġashamed": 6685,
      "Ġjames": 6686,
      "igen": 6687,
      "local": 6688,
      "iaphas": 6689,
      "Ġsetup": 6690,
      "Ġremed": 6691,
      "ensions": 6692,
      "Ġreturning": 6693,
      "Ġinsult": 6694,
      "Ġ2065": 6695,
      "Ġannas": 6696,
      "Ġseriously": 6697,
      "rooms": 6698,
      "Ġhindi": 6699,
      "grees": 6700,
      "Ġcorrupt": 6701,
      "Ġinstruments": 6702,
      "Ġmourning": 6703,
      "Ġnurse": 6704,
      "ĠâĢľ": 6705,
      "Ġiraq": 6706,
      "pan": 6707,
      "rom": 6708,
      "ening": 6709,
      "Ġly": 6710,
      "urally": 6711,
      "odes": 6712,
      "Ġasa": 6713,
      "Ġdegrees": 6714,
      "Ġplot": 6715,
      "acles": 6716,
      "rypt": 6717,
      "Ġsovi": 6718,
      "Ġapplet": 6719,
      "Ġ55": 6720,
      "Ġsubur": 6721,
      "Ġcorp": 6722,
      "Ġrepair": 6723,
      "Ġtestify": 6724,
      "Ġ2055": 6725,
      "Ġ2056": 6726,
      "Ġportug": 6727,
      "Ġattempted": 6728,
      "Ġplanted": 6729,
      "Ġcitizenship": 6730,
      "Ġupdated": 6731,
      "Ġbhaktapur": 6732,
      "Ġsensitive": 6733,
      "Ġislands": 6734,
      "Ġresearchers": 6735,
      "various": 6736,
      "Ġentrance": 6737,
      "car": 6738,
      "date": 6739,
      "eld": 6740,
      "Ġtired": 6741,
      "Ġack": 6742,
      "having": 6743,
      "ede": 6744,
      "Ġlosing": 6745,
      "adi": 6746,
      "earlier": 6747,
      "Ġvital": 6748,
      "ema": 6749,
      "Ġanybody": 6750,
      "Ġgoddess": 6751,
      "Ġhandled": 6752,
      "Ġgovernmental": 6753,
      "Ġrecover": 6754,
      "Ġ92": 6755,
      "Ġdetained": 6756,
      "isms": 6757,
      "Ġadvis": 6758,
      "Ġadvance": 6759,
      "Ġ1997": 6760,
      "Ġthrown": 6761,
      "Ġtranslation": 6762,
      "Ġconcerns": 6763,
      "Ġoxy": 6764,
      "Ġratio": 6765,
      "Ġinspiration": 6766,
      "necessary": 6767,
      "rim": 6768,
      "wid": 6769,
      "Ġcure": 6770,
      "Ġpu": 6771,
      "Ġconcent": 6772,
      "Ġmyst": 6773,
      "Ġspaces": 6774,
      "Ġwheat": 6775,
      "Ġshrestha": 6776,
      "Ġshel": 6777,
      "Ġjudges": 6778,
      "Ġfinding": 6779,
      "Ġsolid": 6780,
      "Ġsmaller": 6781,
      "Ġeventually": 6782,
      "Ġ1988": 6783,
      "Ġcaptive": 6784,
      "Ġattacks": 6785,
      "Ġrequirement": 6786,
      "Ġdiabet": 6787,
      "Ġresolved": 6788,
      "Ġarguments": 6789,
      "Ġmonitoring": 6790,
      "desp": 6791,
      "Ġconfirmation": 6792,
      "brew": 6793,
      "vous": 6794,
      "Ġoath": 6795,
      "owed": 6796,
      "Ġhel": 6797,
      "Ġsections": 6798,
      "Ġgoats": 6799,
      "Ġscan": 6800,
      "Ġfeared": 6801,
      "Ġmargin": 6802,
      "Ġpreach": 6803,
      "Ġundergoing": 6804,
      "Ġchald": 6805,
      "Ġrecovered": 6806,
      "Ġhonest": 6807,
      "Ġhousing": 6808,
      "Ġtabs": 6809,
      "fold": 6810,
      "Ġadults": 6811,
      "Ġoverseas": 6812,
      "Ġphases": 6813,
      "--": 6814,
      "lay": 6815,
      "lings": 6816,
      "mess": 6817,
      "Ġterr": 6818,
      "Ġcow": 6819,
      "encing": 6820,
      "Ġdil": 6821,
      "Ġstol": 6822,
      "sover": 6823,
      "Ġworker": 6824,
      "Ġ2081": 6825,
      "Ġgovernor": 6826,
      "others": 6827,
      "Ġentitled": 6828,
      "Ġefficiency": 6829,
      "Ġcaiaphas": 6830,
      "à¤¿": 6831,
      "Ġdifficulties": 6832,
      "chem": 6833,
      "Ġdeclined": 6834,
      "Ġphiloso": 6835,
      "Ġdomain": 6836,
      "Ġnegoti": 6837,
      "Ġrams": 6838,
      "Ġcontributed": 6839,
      "Ġdancing": 6840,
      "Ġhouseholds": 6841,
      "Ġnavig": 6842,
      "Ġnutrition": 6843,
      "Ġnebuchadnezzar": 6844,
      "Ġpassphrase": 6845,
      "Ġsuburbs": 6846,
      "despite": 6847,
      "bless": 6848,
      "care": 6849,
      "det": 6850,
      "money": 6851,
      "russia": 6852,
      "rer": 6853,
      "Ġdhar": 6854,
      "Ġnom": 6855,
      "Ġhen": 6856,
      "Ġhebrew": 6857,
      "Ġhi": 6858,
      "Ġnotification": 6859,
      "que": 6860,
      "Ġagent": 6861,
      "Ġouter": 6862,
      "Ġexpenses": 6863,
      "Ġtray": 6864,
      "Ġcool": 6865,
      "Ġmarvel": 6866,
      "Ġputting": 6867,
      "Ġgenerate": 6868,
      "auto": 6869,
      "Ġ2051": 6870,
      "Ġmedication": 6871,
      "Ġenjoying": 6872,
      "itudes": 6873,
      "Ġarray": 6874,
      "Ġlambs": 6875,
      "Ġnewspapers": 6876,
      "lasting": 6877,
      "Ġsurrounded": 6878,
      "Ġcomponents": 6879,
      "Ġaston": 6880,
      "Ġorgans": 6881,
      "Ġgentiles": 6882,
      "Ġhorizontal": 6883,
      "Ġacknow": 6884,
      "Ġoxygen": 6885,
      "aven": 6886,
      "gency": 6887,
      "Ġwand": 6888,
      "Ġdhan": 6889,
      "anmar": 6890,
      "omach": 6891,
      "Ġdeeds": 6892,
      "olitan": 6893,
      "Ġabi": 6894,
      "Ġcompass": 6895,
      "Ġlikewise": 6896,
      "Ġresc": 6897,
      "irect": 6898,
      "next": 6899,
      "Ġcontinues": 6900,
      "Ġpopup": 6901,
      "max": 6902,
      "Ġtournament": 6903,
      "Ġeverlasting": 6904,
      "Ġ1984": 6905,
      "Ġcreative": 6906,
      "Ġversions": 6907,
      "Ġdebug": 6908,
      "Ġuniverse": 6909,
      "saul": 6910,
      "Ġcombination": 6911,
      "Ġspoil": 6912,
      "Ġdischarged": 6913,
      "activate": 6914,
      "Ġpassover": 6915,
      "Ġconcentr": 6916,
      "friend": 6917,
      "map": 6918,
      "named": 6919,
      "Ġtu": 6920,
      "Ġtor": 6921,
      "Ġtents": 6922,
      "Ġsib": 6923,
      "Ġnurs": 6924,
      "ashed": 6925,
      "hish": 6926,
      "imate": 6927,
      "ading": 6928,
      "Ġsequ": 6929,
      "Ġconclud": 6930,
      "Ġshed": 6931,
      "being": 6932,
      "Ġphones": 6933,
      "Ġpersonality": 6934,
      "Ġheading": 6935,
      "Ġrestaur": 6936,
      "Ġshortly": 6937,
      "Ġtopics": 6938,
      "Ġ2064": 6939,
      "Ġemployed": 6940,
      "Ġshocked": 6941,
      "Ġdifficulty": 6942,
      "Ġcalm": 6943,
      "Ġautomatic": 6944,
      "Ġconsume": 6945,
      "Ġimprovements": 6946,
      "didn": 6947,
      "Ġchurches": 6948,
      "Ġbehalf": 6949,
      "Ġgarment": 6950,
      "Ġlatin": 6951,
      "Ġcancel": 6952,
      "Ġencrypted": 6953,
      "Ġstrengthened": 6954,
      "Ġshekels": 6955,
      "Ġwelcomed": 6956,
      "Ġmystery": 6957,
      "bra": 6958,
      "mati": 6959,
      "nn": 6960,
      "pack": 6961,
      "uate": 6962,
      "Ġ%": 6963,
      "Ġahab": 6964,
      "Ġwire": 6965,
      "organ": 6966,
      "Ġpace": 6967,
      "ception": 6968,
      "wel": 6969,
      "Ġsegment": 6970,
      "Ġshr": 6971,
      "usted": 6972,
      "rename": 6973,
      "Ġexplo": 6974,
      "Ġimprison": 6975,
      "Ġcontained": 6976,
      "uben": 6977,
      "Ġ41": 6978,
      "Ġbuying": 6979,
      "Ġcurtain": 6980,
      "Ġdesert": 6981,
      "Ġconsp": 6982,
      "Ġdistin": 6983,
      "Ġthirst": 6984,
      "Ġlearnt": 6985,
      "Ġmush": 6986,
      "Ġlights": 6987,
      "Ġsounds": 6988,
      "Ġwidow": 6989,
      "Ġcovering": 6990,
      "Ġalarms": 6991,
      "Ġbonds": 6992,
      "Ġarabia": 6993,
      "meanwhile": 6994,
      "cour": 6995,
      "kim": 6996,
      "Ġnaz": 6997,
      "Ġgross": 6998,
      "second": 6999,
      "hana": 7000,
      "Ġlevi": 7001,
      "Ġadverse": 7002,
      "Ġquery": 7003,
      "Ġmothers": 7004,
      "Ġbengal": 7005,
      "parliament": 7006,
      "Ġswed": 7007,
      "Ġcustoms": 7008,
      "Ġhonour": 7009,
      "Ġutilisation": 7010,
      "Ġarrangement": 7011,
      "Ġjehoi": 7012,
      "Ġhabit": 7013,
      "schools": 7014,
      "Ġincorrect": 7015,
      "Ġfeasibility": 7016,
      "Ġdemons": 7017,
      "Ġhungry": 7018,
      "Ġkonqueror": 7019,
      "40": 7020,
      "bing": 7021,
      "dhar": 7022,
      "eff": 7023,
      "ius": 7024,
      "long": 7025,
      "Ġfet": 7026,
      "Ġpars": 7027,
      "ales": 7028,
      "Ġreference": 7029,
      "Ġalm": 7030,
      "Ġstomach": 7031,
      "host": 7032,
      "raction": 7033,
      "Ġthrew": 7034,
      "Ġboast": 7035,
      "doctors": 7036,
      "Ġpasses": 7037,
      "Ġmeetings": 7038,
      "Ġmodels": 7039,
      "Ġjudea": 7040,
      "Ġsentence": 7041,
      "Ġsituations": 7042,
      "oughly": 7043,
      "too": 7044,
      "Ġskilled": 7045,
      "Ġassess": 7046,
      "Ġsalt": 7047,
      "addy": 7048,
      "Ġapolog": 7049,
      "Ġorders": 7050,
      "Ġmentally": 7051,
      "Ġsymbols": 7052,
      "Ġbaptized": 7053,
      "Ġabominations": 7054,
      "Ġstruggling": 7055,
      "Ġnuclear": 7056,
      "Ġguarant": 7057,
      "igenous": 7058,
      "creat": 7059,
      "sorry": 7060,
      "Ġthee": 7061,
      "Ġsorry": 7062,
      "Ġfash": 7063,
      "Ġdin": 7064,
      "icks": 7065,
      "Ġhunt": 7066,
      "Ġasks": 7067,
      "Ġmemo": 7068,
      "Ġupward": 7069,
      "abad": 7070,
      "Ġsheets": 7071,
      "Ġapple": 7072,
      "Ġshouldn": 7073,
      "Ġevol": 7074,
      "Ġrelation": 7075,
      "Ġdistress": 7076,
      "Ġcleans": 7077,
      "Ġdiscard": 7078,
      "Ġsouthern": 7079,
      "Ġorganisation": 7080,
      "Ġruled": 7081,
      "bron": 7082,
      "Ġapplicable": 7083,
      "Ġtables": 7084,
      "Ġmerc": 7085,
      "Ġregarded": 7086,
      "Ġarrive": 7087,
      "Ġexported": 7088,
      "Ġpregnancy": 7089,
      "Ġweapon": 7090,
      "Ġdelayed": 7091,
      "hopefully": 7092,
      "Ġtips": 7093,
      "Ġattribute": 7094,
      "Ġpolygon": 7095,
      "Ġthumbn": 7096,
      "Ġworkspace": 7097,
      "ko": 7098,
      "Ġtied": 7099,
      "Ġgap": 7100,
      "hath": 7101,
      "Ġheal": 7102,
      "Ġhebron": 7103,
      "Ġsty": 7104,
      "celer": 7105,
      "Ġdear": 7106,
      "Ġuzz": 7107,
      "aki": 7108,
      "keys": 7109,
      "Ġedition": 7110,
      "Ġwars": 7111,
      "Ġwarrant": 7112,
      "Ġjudged": 7113,
      "Ġsimon": 7114,
      "ashmir": 7115,
      "Ġdivine": 7116,
      "Ġparticipating": 7117,
      "Ġcounter": 7118,
      "Ġmeasured": 7119,
      "Ġachievements": 7120,
      "sibly": 7121,
      "Ġinnocent": 7122,
      "specify": 7123,
      "Ġolympics": 7124,
      "custom": 7125,
      "ny": 7126,
      "non": 7127,
      "ran": 7128,
      "Ġahaz": 7129,
      "Ġsik": 7130,
      "isl": 7131,
      "Ġbatter": 7132,
      "Ġmigr": 7133,
      "Ġpy": 7134,
      "atnagar": 7135,
      "iry": 7136,
      "Ġmyanmar": 7137,
      "umble": 7138,
      "aging": 7139,
      "Ġboost": 7140,
      "Ġrescu": 7141,
      "Ġprovisions": 7142,
      "Ġbackward": 7143,
      "Ġformal": 7144,
      "Ġformulated": 7145,
      "Ġhopes": 7146,
      "Ġheaded": 7147,
      "Ġafford": 7148,
      "Ġslight": 7149,
      "Ġminds": 7150,
      "Ġshoes": 7151,
      "Ġnetworks": 7152,
      "Ġexpectation": 7153,
      "Ġ1970": 7154,
      "Ġ1960": 7155,
      "Ġprotecting": 7156,
      "Ġships": 7157,
      "Ġcancelled": 7158,
      "hence": 7159,
      "Ġcruc": 7160,
      "Ġsixty": 7161,
      "Ġfertil": 7162,
      "ga": 7163,
      "good": 7164,
      "ipped": 7165,
      "mail": 7166,
      "old": 7167,
      "ystem": 7168,
      "Ġbicy": 7169,
      "asp": 7170,
      "atible": 7171,
      "Ġeg": 7172,
      "still": 7173,
      "celon": 7174,
      "loc": 7175,
      "Ġeveryday": 7176,
      "Ġchannels": 7177,
      "ctory": 7178,
      "Ġbuff": 7179,
      "text": 7180,
      "Ġtemples": 7181,
      "changes": 7182,
      "insert": 7183,
      "Ġhonored": 7184,
      "Ġholds": 7185,
      "produ": 7186,
      "Ġcookie": 7187,
      "Ġdelivery": 7188,
      "Ġforgive": 7189,
      "compared": 7190,
      "Ġjehoshaphat": 7191,
      "Ġtransferred": 7192,
      "Ġshield": 7193,
      "Ġcollaboration": 7194,
      "Ġforsaken": 7195,
      "Ġreproach": 7196,
      "Ġocean": 7197,
      "Ġsoviet": 7198,
      "width": 7199,
      "blessed": 7200,
      "celona": 7201,
      "23": 7202,
      "ji": 7203,
      "nings": 7204,
      "Ġcache": 7205,
      "enger": 7206,
      "Ġtoile": 7207,
      "esome": 7208,
      "ato": 7209,
      "Ġbeast": 7210,
      "etary": 7211,
      "uls": 7212,
      "Ġimpressed": 7213,
      "Ġafterwards": 7214,
      "Ġphrase": 7215,
      "Ġadding": 7216,
      "Ġproducer": 7217,
      "Ġdefine": 7218,
      "Ġ84": 7219,
      "Ġsignal": 7220,
      "Ġmetrop": 7221,
      "Ġvisiting": 7222,
      "Ġcease": 7223,
      "Ġruling": 7224,
      "Ġperforming": 7225,
      "Ġmultipl": 7226,
      "Ġexpanding": 7227,
      "Ġverify": 7228,
      "Ġterrible": 7229,
      "Ġborrowing": 7230,
      "elled": 7231,
      "lin": 7232,
      "sort": 7233,
      "test": 7234,
      "Ġax": 7235,
      "Ġsod": 7236,
      "ouds": 7237,
      "Ġpond": 7238,
      "Ġhast": 7239,
      "otic": 7240,
      "Ġrender": 7241,
      "Ġride": 7242,
      "Ġmary": 7243,
      "Ġroof": 7244,
      "Ġcurve": 7245,
      "Ġtracks": 7246,
      "note": 7247,
      "Ġpersp": 7248,
      "Ġcausing": 7249,
      "Ġpassion": 7250,
      "Ġwonders": 7251,
      "Ġpolitically": 7252,
      "Ġwaited": 7253,
      "Ġbird": 7254,
      "hadur": 7255,
      "ikam": 7256,
      "Ġturns": 7257,
      "Ġcontribute": 7258,
      "Ġbridges": 7259,
      "Ġlatter": 7260,
      "Ġrepeat": 7261,
      "Ġhighlighted": 7262,
      "Ġaccordance": 7263,
      "Ġhanging": 7264,
      "human": 7265,
      "Ġpowers": 7266,
      "Ġforgotten": 7267,
      "Ġcinema": 7268,
      "joshua": 7269,
      "bul": 7270,
      "ded": 7271,
      "lar": 7272,
      "Ã©": 7273,
      "Ġq": 7274,
      "inating": 7275,
      "Ġwra": 7276,
      "Ġol": 7277,
      "iders": 7278,
      "Ġshots": 7279,
      "Ġbold": 7280,
      "Ġclouds": 7281,
      "Ġlongest": 7282,
      "Ġinstruct": 7283,
      "Ġ600": 7284,
      "Ġdiffer": 7285,
      "Ġ1998": 7286,
      "Ġcomputers": 7287,
      "umbini": 7288,
      "Ġexecution": 7289,
      "Ġawesome": 7290,
      "Ġcontinuing": 7291,
      "Ġsubstance": 7292,
      "Ġalleged": 7293,
      "Ġcategory": 7294,
      "Ġtape": 7295,
      "Ġbrief": 7296,
      "Ġmerchant": 7297,
      "Ġnormally": 7298,
      "jan": 7299,
      "jud": 7300,
      "kind": 7301,
      "Ġtat": 7302,
      "Ġber": 7303,
      "Ġmi": 7304,
      "Ġmort": 7305,
      "Ġyoke": 7306,
      "Ġlake": 7307,
      "icho": 7308,
      "Ġhears": 7309,
      "ird": 7310,
      "Ġkne": 7311,
      "Ġsupre": 7312,
      "Ġaband": 7313,
      "Ġabuse": 7314,
      "hik": 7315,
      "Ġscen": 7316,
      "agog": 7317,
      "Ġfees": 7318,
      "Ġcounted": 7319,
      "Ġmayor": 7320,
      "Ġstandards": 7321,
      "Ġfacilit": 7322,
      "Ġbahadur": 7323,
      "Ġcontacted": 7324,
      "Ġlimits": 7325,
      "Ġinvestigating": 7326,
      "Ġplugins": 7327,
      "Ġdisappoint": 7328,
      "Ġutilization": 7329,
      "Ġstretch": 7330,
      "Ġpulled": 7331,
      "Ġauthentication": 7332,
      "Ġpursue": 7333,
      "Ġpsycho": 7334,
      "Ġmetropolitan": 7335,
      "Ġsupreme": 7336,
      "gi": 7337,
      "hot": 7338,
      "rot": 7339,
      "tic": 7340,
      "ua": 7341,
      "Ġtorn": 7342,
      "Ġay": 7343,
      "Ġaven": 7344,
      "Ġbat": 7345,
      "Ġcig": 7346,
      "Ġlal": 7347,
      "Ġgimp": 7348,
      "icious": 7349,
      "Ġseats": 7350,
      "Ġhimal": 7351,
      "endra": 7352,
      "Ġcompare": 7353,
      "Ġindigenous": 7354,
      "Ġthanked": 7355,
      "Ġattain": 7356,
      "Ġlocally": 7357,
      "Ġdetail": 7358,
      "Ġelisha": 7359,
      "Ġgrave": 7360,
      "Ġideal": 7361,
      "Ġsoldier": 7362,
      "Ġpermitted": 7363,
      "Ġflowing": 7364,
      "Ġtrusted": 7365,
      "Ġglorified": 7366,
      "nevertheless": 7367,
      "fortunately": 7368,
      "ipedia": 7369,
      "Ġsubsidy": 7370,
      "Ġfashion": 7371,
      "Ġrescued": 7372,
      "del": 7373,
      "ias": 7374,
      "iant": 7375,
      "recent": 7376,
      "Ġbul": 7377,
      "Ġfy": 7378,
      "Ġmotion": 7379,
      "Ġpad": 7380,
      "esha": 7381,
      "atha": 7382,
      "oma": 7383,
      "alog": 7384,
      "essions": 7385,
      "Ġrit": 7386,
      "Ġhandma": 7387,
      "Ġunderway": 7388,
      "Ġwhereas": 7389,
      "Ġcaes": 7390,
      "Ġpassing": 7391,
      "Ġdistur": 7392,
      "Ġtransgress": 7393,
      "Ġacceler": 7394,
      "develop": 7395,
      "Ġmidian": 7396,
      "Ġ1992": 7397,
      "Ġpaying": 7398,
      "law": 7399,
      "Ġclothed": 7400,
      "build": 7401,
      "Ġfeatured": 7402,
      "Ġweaknesses": 7403,
      "Ġflights": 7404,
      "Ġignored": 7405,
      "Ġprophesied": 7406,
      "Ġconvenient": 7407,
      "Ġprosperity": 7408,
      "Ġexcessive": 7409,
      "following": 7410,
      "Ġprovinces": 7411,
      "Ġchalde": 7412,
      "field": 7413,
      "va": 7414,
      "Ġsessions": 7415,
      "Ġbor": 7416,
      "Ġbors": 7417,
      "Ġcord": 7418,
      "Ġmasks": 7419,
      "Ġink": 7420,
      "Ġkashmir": 7421,
      "Ġstuck": 7422,
      "ili": 7423,
      "Ġjav": 7424,
      "Ġriding": 7425,
      "Ġimposed": 7426,
      "Ġcloth": 7427,
      "Ġraising": 7428,
      "Ġmao": 7429,
      "Ġevident": 7430,
      "Ġflav": 7431,
      "Ġlocals": 7432,
      "Ġcolour": 7433,
      "Ġhole": 7434,
      "erior": 7435,
      "Ġstranger": 7436,
      "Ġreporters": 7437,
      "Ġexamination": 7438,
      "Ġengra": 7439,
      "Ġrefund": 7440,
      "command": 7441,
      "Ġhotels": 7442,
      "Ġtaxes": 7443,
      "ography": 7444,
      "Ġwebsites": 7445,
      "Ġdivers": 7446,
      "Ġassistant": 7447,
      "Ġpunished": 7448,
      "Ġcommented": 7449,
      "llywood": 7450,
      "parents": 7451,
      "Ġrelatively": 7452,
      "Ġfolks": 7453,
      "Ġceremony": 7454,
      "edekiah": 7455,
      "Ġtel": 7456,
      "israel": 7457,
      "thel": 7458,
      "asa": 7459,
      "Ġwashed": 7460,
      "Ġult": 7461,
      "Ġja": 7462,
      "ender": 7463,
      "Ġupright": 7464,
      "eph": 7465,
      "Ġprey": 7466,
      "ounded": 7467,
      "Ġhealthcare": 7468,
      "Ġblank": 7469,
      "Ġcenturies": 7470,
      "Ġdevoted": 7471,
      "cuit": 7472,
      "Ġdivor": 7473,
      "ika": 7474,
      "Ġlegisl": 7475,
      "Ġsample": 7476,
      "Ġrelationships": 7477,
      "Ġlosses": 7478,
      "Ġattempts": 7479,
      "Ġbowed": 7480,
      "Ġsynagog": 7481,
      "Ġsharma": 7482,
      "Ġcontinuously": 7483,
      "Ġmonitor": 7484,
      "Ġdecreased": 7485,
      "Ġshiva": 7486,
      "Ġabundance": 7487,
      "==": 7488,
      "jacob": 7489,
      "must": 7490,
      "ti": 7491,
      "áĥ": 7492,
      "ishes": 7493,
      "Ġbhat": 7494,
      "onia": 7495,
      "Ġpipe": 7496,
      "uta": 7497,
      "ams": 7498,
      "Ġmarks": 7499,
      "Ġemails": 7500,
      "Ġfollowers": 7501,
      "Ġ91": 7502,
      "Ġjew": 7503,
      "Ġdevour": 7504,
      "Ġallowance": 7505,
      "Ġallowances": 7506,
      "Ġactively": 7507,
      "Ġsupplied": 7508,
      "Ġnaturally": 7509,
      "Ġscribes": 7510,
      "Ġconnecting": 7511,
      "Ġexpectations": 7512,
      "à¥ĩ": 7513,
      "Ġcommerce": 7514,
      "Ġexecuted": 7515,
      "something": 7516,
      "Ġtreasure": 7517,
      "Ġherod": 7518,
      "Ġdespite": 7519,
      "Ġcasino": 7520,
      "Ġarrows": 7521,
      "Ġdefeated": 7522,
      "Ġcomparison": 7523,
      "Ġscholarship": 7524,
      "Ġdilig": 7525,
      "Ġsiblings": 7526,
      "Ġchaldeans": 7527,
      "much": 7528,
      "Ġnig": 7529,
      "Ġisaiah": 7530,
      "entation": 7531,
      "Ġreuben": 7532,
      "Ġkn": 7533,
      "Ġkos": 7534,
      "Ġplastic": 7535,
      "ends": 7536,
      "Ġamen": 7537,
      "Ġuna": 7538,
      "Ġseeks": 7539,
      "Ġprec": 7540,
      "Ġoverth": 7541,
      "licted": 7542,
      "formation": 7543,
      "reading": 7544,
      "Ġenthus": 7545,
      "Ġinvitation": 7546,
      "Ġ82": 7547,
      "Ġreporting": 7548,
      "Ġgland": 7549,
      "Ġswit": 7550,
      "gery": 7551,
      "Ġapproxim": 7552,
      "Ġtargeted": 7553,
      "Ġoptim": 7554,
      "Ġlowest": 7555,
      "Ġconducting": 7556,
      "Ġhurting": 7557,
      "à¥ĭ": 7558,
      "Ġsignificance": 7559,
      "Ġtravelled": 7560,
      "Ġpalm": 7561,
      "Ġladder": 7562,
      "install": 7563,
      "Ġuncertain": 7564,
      "Ġwounded": 7565,
      "Ġdefeat": 7566,
      "Ġcloser": 7567,
      "kyo": 7568,
      "Ġexceedingly": 7569,
      "Ġexperiment": 7570,
      "Ġamorites": 7571,
      "Ġshifted": 7572,
      "Ġcompassion": 7573,
      "Ġrescue": 7574,
      "eight": 7575,
      "fix": 7576,
      "met": 7577,
      "Ġwiz": 7578,
      "Ġmas": 7579,
      "Ġislam": 7580,
      "asha": 7581,
      "Ġthin": 7582,
      "Ġdoz": 7583,
      "Ġspear": 7584,
      "rous": 7585,
      "Ġnewly": 7586,
      "Ġpron": 7587,
      "Ġada": 7588,
      "Ġkindled": 7589,
      "Ġchristian": 7590,
      "Ġcompetitions": 7591,
      "Ġrisen": 7592,
      "Ġcreatures": 7593,
      "program": 7594,
      "Ġcolleges": 7595,
      "Ġsurprise": 7596,
      "Ġfavorite": 7597,
      "Ġundo": 7598,
      "Ġprinciple": 7599,
      "Ġdecrease": 7600,
      "Ġbeaten": 7601,
      "Ġemergency": 7602,
      "Ġstretched": 7603,
      "Ġkarnali": 7604,
      "Ġretrieve": 7605,
      "Ġdupl": 7606,
      "Ġannouncement": 7607,
      "Ġmotorcycle": 7608,
      "Ġexalted": 7609,
      "food": 7610,
      "iety": 7611,
      "uable": 7612,
      "Ġtan": 7613,
      "Ġtherap": 7614,
      "Ġtokyo": 7615,
      "Ġlament": 7616,
      "rog": 7617,
      "rain": 7618,
      "Ġproven": 7619,
      "Ġdogs": 7620,
      "Ġjump": 7621,
      "ested": 7622,
      "acher": 7623,
      "ateful": 7624,
      "Ġcomply": 7625,
      "Ġsomebody": 7626,
      "need": 7627,
      "Ġrelating": 7628,
      "iply": 7629,
      "Ġputs": 7630,
      "Ġassigned": 7631,
      "Ġjericho": 7632,
      "Ġdivide": 7633,
      "Ġ1996": 7634,
      "Ġdisplaying": 7635,
      "Ġbari": 7636,
      "Ġcampus": 7637,
      "Ġcaptured": 7638,
      "crete": 7639,
      "Ġdeceit": 7640,
      "Ġmiracle": 7641,
      "Ġappreciate": 7642,
      "Ġintellig": 7643,
      "Ġstroke": 7644,
      "abulary": 7645,
      "Ġdiabetes": 7646,
      "bir": 7647,
      "kde": 7648,
      "uer": 7649,
      "Ġsits": 7650,
      "Ġced": 7651,
      "llo": 7652,
      "Ġna": 7653,
      "Ġvent": 7654,
      "Ġvotes": 7655,
      "unch": 7656,
      "Ġdecent": 7657,
      "Ġ59": 7658,
      "Ġlists": 7659,
      "Ġhospitalized": 7660,
      "Ġblocked": 7661,
      "Ġproductive": 7662,
      "Ġbiratnagar": 7663,
      "Ġfootballer": 7664,
      "Ġlabels": 7665,
      "Ġsalary": 7666,
      "Ġconsideration": 7667,
      "Ġfundament": 7668,
      "Ġschedule": 7669,
      "Ġdiagn": 7670,
      "Ġsanctified": 7671,
      "Ġturning": 7672,
      "Ġconvention": 7673,
      "Ġignore": 7674,
      "Ġkmail": 7675,
      "Ġcrucial": 7676,
      "Ġappointment": 7677,
      "Ġbrick": 7678,
      "Ġwikipedia": 7679,
      "ju": 7680,
      "jab": 7681,
      "mas": 7682,
      "ror": 7683,
      "Ġ/": 7684,
      "Ġsizes": 7685,
      "Ġphen": 7686,
      "Ġgri": 7687,
      "Ġgroom": 7688,
      "Ġeve": 7689,
      "Ġanoint": 7690,
      "Ġconc": 7691,
      "Ġvat": 7692,
      "Ġpeak": 7693,
      "Ġcomposed": 7694,
      "ountered": 7695,
      "Ġincom": 7696,
      "Ġwanting": 7697,
      "licop": 7698,
      "angle": 7699,
      "Ġentertain": 7700,
      "Ġblast": 7701,
      "Ġpalette": 7702,
      "Ġengage": 7703,
      "Ġruined": 7704,
      "Ġactivate": 7705,
      "Ġcommittees": 7706,
      "Ġdrinks": 7707,
      "Ġreduces": 7708,
      "chel": 7709,
      "Ġblessings": 7710,
      "Ġrequests": 7711,
      "Ġencrypt": 7712,
      "Ġignor": 7713,
      "contin": 7714,
      "Ġsprink": 7715,
      "Ġtrailer": 7716,
      "Ġconverted": 7717,
      "Ġelderly": 7718,
      "Ġdiscipline": 7719,
      "bad": 7720,
      "cised": 7721,
      "ris": 7722,
      "want": 7723,
      "Ġbatt": 7724,
      "adays": 7725,
      "Ġstumble": 7726,
      "Ġthor": 7727,
      "Ġmel": 7728,
      "anda": 7729,
      "Ġmanually": 7730,
      "Ġleaf": 7731,
      "udd": 7732,
      "Ġnose": 7733,
      "Ġroles": 7734,
      "Ġdonkeys": 7735,
      "Ġlasted": 7736,
      "Ġdiscrim": 7737,
      "Ġeleazar": 7738,
      "Ġprocesses": 7739,
      "Ġdrunk": 7740,
      "Ġtrig": 7741,
      "Ġmusician": 7742,
      "Ġpromoted": 7743,
      "Ġtreaty": 7744,
      "Ġdrivers": 7745,
      "Ġdreamed": 7746,
      "Ġreducing": 7747,
      "Ġtali": 7748,
      "Ġkingdoms": 7749,
      "Ġexclud": 7750,
      "Ġattempting": 7751,
      "Ġutilized": 7752,
      "Ġvolunt": 7753,
      "Ġacquired": 7754,
      "Ġneighborhood": 7755,
      "Ġreminded": 7756,
      "Ġmuslims": 7757,
      "subs": 7758,
      "Ġrecipients": 7759,
      "Ġjuice": 7760,
      "Ġhtml": 7761,
      "Ġaffliction": 7762,
      "Ġdisclosed": 7763,
      "Ġphilippines": 7764,
      "Ġstolen": 7765,
      "Ġstyles": 7766,
      "bling": 7767,
      "held": 7768,
      "eding": 7769,
      "Ġdot": 7770,
      "ara": 7771,
      "Ġbeer": 7772,
      "ushed": 7773,
      "Ġreset": 7774,
      "ami": 7775,
      "adab": 7776,
      "urities": 7777,
      "hop": 7778,
      "Ġshift": 7779,
      "quar": 7780,
      "Ġfirms": 7781,
      "Ġcoal": 7782,
      "plete": 7783,
      "format": 7784,
      "Ġgrateful": 7785,
      "Ġvillagers": 7786,
      "Ġyoungest": 7787,
      "Ġnights": 7788,
      "Ġchron": 7789,
      "Ġgrains": 7790,
      "Ġencountered": 7791,
      "Ġinteract": 7792,
      "Ġwins": 7793,
      "Ġauthors": 7794,
      "Ġforestry": 7795,
      "Ġcriticized": 7796,
      "Ġtender": 7797,
      "Ġyellow": 7798,
      "Ġbathroom": 7799,
      "Ġdeposit": 7800,
      "Ġrepeatedly": 7801,
      "ascus": 7802,
      "Ġparameters": 7803,
      "Ġpaintings": 7804,
      "person": 7805,
      "Ġcherub": 7806,
      "Ġconservation": 7807,
      "Ġbutterfly": 7808,
      "maximum": 7809,
      "gor": 7810,
      "iance": 7811,
      "lots": 7812,
      "ole": 7813,
      "Ġted": 7814,
      "health": 7815,
      "Ġath": 7816,
      "Ġsli": 7817,
      "Ġcraft": 7818,
      "iti": 7819,
      "leep": 7820,
      "Ġbethel": 7821,
      "owse": 7822,
      "Ġwept": 7823,
      "Ġkal": 7824,
      "Ġalert": 7825,
      "Ġconcrete": 7826,
      "akim": 7827,
      "Ġcompens": 7828,
      "Ġexpired": 7829,
      "agree": 7830,
      "Ġarc": 7831,
      "Ġadequ": 7832,
      "Ġrelax": 7833,
      "Ġsubsequently": 7834,
      "Ġsmoking": 7835,
      "Ġgrows": 7836,
      "Ġ1994": 7837,
      "Ġbarcelona": 7838,
      "Ġ1983": 7839,
      "Ġsalaries": 7840,
      "Ġscribe": 7841,
      "Ġyouths": 7842,
      "Ġsurprising": 7843,
      "Ġgradient": 7844,
      "Ġindependence": 7845,
      "viously": 7846,
      "Ġincorpor": 7847,
      "Ġtransmission": 7848,
      "Ġrebell": 7849,
      "Ġphotographer": 7850,
      "Ġweeping": 7851,
      "Ġgreek": 7852,
      "Ġkilo": 7853,
      "Ġvineyard": 7854,
      "Ġtheatre": 7855,
      "Ġadversaries": 7856,
      "Ġapostles": 7857,
      "Ġphenomen": 7858,
      "cers": 7859,
      "cong": 7860,
      "dist": 7861,
      "eared": 7862,
      "voting": 7863,
      "Ġfake": 7864,
      "Ġmime": 7865,
      "Ġhates": 7866,
      "Ġlumbini": 7867,
      "otions": 7868,
      "Ġrect": 7869,
      "Ġhelicop": 7870,
      "iri": 7871,
      "Ġkan": 7872,
      "Ġpartition": 7873,
      "six": 7874,
      "Ġpersonnel": 7875,
      "Ġexamine": 7876,
      "Ġviewer": 7877,
      "Ġdevote": 7878,
      "Ġpresentation": 7879,
      "Ġimplementing": 7880,
      "Ġcreates": 7881,
      "Ġcreature": 7882,
      "Ġairports": 7883,
      "Ġfifteen": 7884,
      "Ġremoving": 7885,
      "Ġhyp": 7886,
      "Ġnovels": 7887,
      "Ġsuspension": 7888,
      "Ġtrumpet": 7889,
      "Ġhorsemen": 7890,
      "Ġtears": 7891,
      "drag": 7892,
      "Ġguests": 7893,
      "Ġvocabulary": 7894,
      "saying": 7895,
      "Ġprofessor": 7896,
      "Ġinterpretation": 7897,
      "Ġsequence": 7898,
      "happ": 7899,
      "Ġfaster": 7900,
      "Ġdating": 7901,
      "aring": 7902,
      "illa": 7903,
      "Ġkrishna": 7904,
      "ador": 7905,
      "Ġconsequ": 7906,
      "Ġconceived": 7907,
      "Ġmyster": 7908,
      "Ġque": 7909,
      "Ġ1950": 7910,
      "Ġchain": 7911,
      "Ġmonetary": 7912,
      "Ġbrook": 7913,
      "erring": 7914,
      "Ġ72": 7915,
      "ifications": 7916,
      "Ġacid": 7917,
      "Ġhoped": 7918,
      "Ġcheap": 7919,
      "Ġspokes": 7920,
      "ounce": 7921,
      "Ġnecessity": 7922,
      "Ġmultiply": 7923,
      "Ġexisted": 7924,
      "Ġdisciple": 7925,
      "Ġdamascus": 7926,
      "Ġdwelling": 7927,
      "Ġreplaced": 7928,
      "Ġenjoyable": 7929,
      "Ġdisappear": 7930,
      "Ġwoods": 7931,
      "phant": 7932,
      "Ġpatterns": 7933,
      "Ġwealthy": 7934,
      "Ġrepayment": 7935,
      "Ġtaliban": 7936,
      "32": 7937,
      "35": 7938,
      "elect": 7939,
      "mult": 7940,
      "pil": 7941,
      "zed": 7942,
      "Ġ,": 7943,
      "heth": 7944,
      "Ġdur": 7945,
      "Ġdried": 7946,
      "Ġdates": 7947,
      "Ġdensity": 7948,
      "esc": 7949,
      "Ġnah": 7950,
      "aneous": 7951,
      "leaven": 7952,
      "ima": 7953,
      "aming": 7954,
      "urved": 7955,
      "Ġii": 7956,
      "Ġmeals": 7957,
      "Ġpluck": 7958,
      "ordec": 7959,
      "Ġincred": 7960,
      "inking": 7961,
      "lication": 7962,
      "Ġhanded": 7963,
      "Ġinteger": 7964,
      "Ġ99": 7965,
      "Ġkeyring": 7966,
      "Ġpublication": 7967,
      "Ġclock": 7968,
      "Ġdetected": 7969,
      "à¤ķ": 7970,
      "Ġcontrols": 7971,
      "retrie": 7972,
      "Ġcompete": 7973,
      "Ġpressed": 7974,
      "coll": 7975,
      "object": 7976,
      "lands": 7977,
      "Ġpractices": 7978,
      "Ġelsewhere": 7979,
      "Ġdominion": 7980,
      "Ġapplying": 7981,
      "until": 7982,
      "Ġresolution": 7983,
      "Ġsynchron": 7984,
      "Ġmanufacturing": 7985,
      "Ġcategories": 7986,
      "Ġquantity": 7987,
      "Ġadvertising": 7988,
      "Ġforsake": 7989,
      "window": 7990,
      "Ġaltars": 7991,
      "Ġmagazine": 7992,
      "Ġchampions": 7993,
      "Ġsyrians": 7994,
      "leavened": 7995,
      "ordecai": 7996,
      "offic": 7997,
      "sign": 7998,
      "Ġtheory": 7999,
      "reset": 8000,
      "Ġwages": 8001,
      "isn": 8002,
      "Ġfro": 8003,
      "edience": 8004,
      "Ġpest": 8005,
      "Ġpip": 8006,
      "Ġhat": 8007,
      "omy": 8008,
      "alous": 8009,
      "Ġhom": 8010,
      "irc": 8011,
      "Ġkit": 8012,
      "hod": 8013,
      "Ġthief": 8014,
      "thousand": 8015,
      "Ġconsol": 8016,
      "hani": 8017,
      "Ġ204": 8018,
      "Ġ2021": 8019,
      "emon": 8020,
      "Ġincl": 8021,
      "Ġ54": 8022,
      "Ġbush": 8023,
      "Ġproducing": 8024,
      "Ġlovely": 8025,
      "Ġheadquar": 8026,
      "Ġafflicted": 8027,
      "Ġbenefited": 8028,
      "Ġaddresses": 8029,
      "Ġcommonly": 8030,
      "Ġsettle": 8031,
      "Ġexplan": 8032,
      "Ġestimate": 8033,
      "within": 8034,
      "Ġdemands": 8035,
      "Ġ1961": 8036,
      "Ġdeeply": 8037,
      "Ġmaintaining": 8038,
      "Ġabsence": 8039,
      "Ġsync": 8040,
      "looking": 8041,
      "Ġinstrument": 8042,
      "connection": 8043,
      "Ġsubstant": 8044,
      "Ġpreserve": 8045,
      "Ġsurvive": 8046,
      "Ġownership": 8047,
      "Ġguru": 8048,
      "Ġfundamental": 8049,
      "thousands": 8050,
      "aves": 8051,
      "mn": 8052,
      "mount": 8053,
      "pread": 8054,
      "wing": 8055,
      "information": 8056,
      "Ġsate": 8057,
      "Ġshan": 8058,
      "Ġcott": 8059,
      "itious": 8060,
      "Ġhaman": 8061,
      "Ġgaz": 8062,
      "Ġforum": 8063,
      "Ġkum": 8064,
      "Ġstations": 8065,
      "ilence": 8066,
      "ckets": 8067,
      "Ġshechem": 8068,
      "Ġfiled": 8069,
      "Ġremark": 8070,
      "Ġgrants": 8071,
      "Ġ62": 8072,
      "Ġblasp": 8073,
      "Ġbusinessman": 8074,
      "Ġgotten": 8075,
      "Ġzedekiah": 8076,
      "Ġsurgery": 8077,
      "Ġcapabilities": 8078,
      "Ġtremb": 8079,
      "Ġelectron": 8080,
      "working": 8081,
      "Ġdealing": 8082,
      "Ġtalents": 8083,
      "Ġmiles": 8084,
      "Ġassembled": 8085,
      "Ġdisappeared": 8086,
      "Ġconvin": 8087,
      "Ġheavily": 8088,
      "Ġbuddy": 8089,
      "Ġemphasises": 8090,
      "Ġrichest": 8091,
      "Ġmobilising": 8092,
      "Ġinitiative": 8093,
      "Ġambass": 8094,
      "Ġadvertise": 8095,
      "Ġnakedness": 8096,
      "Ġgandhi": 8097,
      "Ġsaddened": 8098,
      "Ġsearched": 8099,
      "supported": 8100,
      "Ġperspective": 8101,
      "Ġhandmaid": 8102,
      "Ġsatell": 8103,
      "ek": 8104,
      "ios": 8105,
      "Ġtight": 8106,
      "inc": 8107,
      "inet": 8108,
      "Ġtoll": 8109,
      "Ġnative": 8110,
      "ariah": 8111,
      "left": 8112,
      "Ġgil": 8113,
      "ilateral": 8114,
      "ulating": 8115,
      "acing": 8116,
      "Ġtheirs": 8117,
      "Ġservers": 8118,
      "Ġunleavened": 8119,
      "Ġneedy": 8120,
      "convert": 8121,
      "Ġroll": 8122,
      "ittances": 8123,
      "lets": 8124,
      "Ġregister": 8125,
      "Ġrecur": 8126,
      "Ġselecting": 8127,
      "Ġ73": 8128,
      "Ġcourses": 8129,
      "Ġestate": 8130,
      "Ġpublicly": 8131,
      "Ġrepa": 8132,
      "Ġdevi": 8133,
      "Ġpromoting": 8134,
      "Ġtechniqu": 8135,
      "Ġcalif": 8136,
      "Ġpatience": 8137,
      "Ġlesson": 8138,
      "Ġ250": 8139,
      "Ġexplains": 8140,
      "Ġsafely": 8141,
      "Ġimpacted": 8142,
      "Ġdigikam": 8143,
      "Ġdeceased": 8144,
      "Ġjunk": 8145,
      "Ġjosiah": 8146,
      "Ġturkey": 8147,
      "Ġoccasions": 8148,
      "Ġinstructions": 8149,
      "Ġchariot": 8150,
      "Ġargent": 8151,
      "Ġrestrictions": 8152,
      "Ġhorns": 8153,
      "break": 8154,
      "Ġabsolutely": 8155,
      "message": 8156,
      "nnai": 8157,
      "Ġwizard": 8158,
      "subscribe": 8159,
      "Ġtechniques": 8160,
      "bur": 8161,
      "mom": 8162,
      "Ġbare": 8163,
      "Ġmiz": 8164,
      "orah": 8165,
      "Ġpor": 8166,
      "Ġpapers": 8167,
      "Ġdign": 8168,
      "atures": 8169,
      "Ġhall": 8170,
      "icip": 8171,
      "Ġhiding": 8172,
      "ceive": 8173,
      "rah": 8174,
      "Ġdele": 8175,
      "Ġsack": 8176,
      "Ġrrb": 8177,
      "Ġspare": 8178,
      "Ġintention": 8179,
      "Ġexposed": 8180,
      "ighty": 8181,
      "Ġdisob": 8182,
      "Ġcommod": 8183,
      "Ġplaylist": 8184,
      "Ġrachel": 8185,
      "Ġgray": 8186,
      "Ġtrap": 8187,
      "Ġregime": 8188,
      "Ġconstra": 8189,
      "uthor": 8190,
      "Ġreporter": 8191,
      "Ġjealous": 8192,
      "Ġfreely": 8193,
      "addition": 8194,
      "Ġtitles": 8195,
      "Ġprisoners": 8196,
      "Ġscientist": 8197,
      "Ġparliamentary": 8198,
      "Ġwalks": 8199,
      "Ġrepresentative": 8200,
      "Ġgathering": 8201,
      "Ġokay": 8202,
      "Ġbagmati": 8203,
      "Ġconvene": 8204,
      "Ġimagined": 8205,
      "Ġindicates": 8206,
      "Ġbricks": 8207,
      "Ġshepherds": 8208,
      "Ġanxiety": 8209,
      "Ġbonus": 8210,
      "harya": 8211,
      "Ġalmighty": 8212,
      "Ġbattery": 8213,
      "Ġapproximately": 8214,
      "cow": 8215,
      "nic": 8216,
      "uro": 8217,
      "replace": 8218,
      "Ġcart": 8219,
      "Ġcents": 8220,
      "Ġdar": 8221,
      "Ġgro": 8222,
      "Ġhun": 8223,
      "Ġwashing": 8224,
      "stop": 8225,
      "adjust": 8226,
      "Ġsavior": 8227,
      "Ġfrustr": 8228,
      "access": 8229,
      "Ġabner": 8230,
      "love": 8231,
      "agra": 8232,
      "Ġunsa": 8233,
      "Ġcounty": 8234,
      "Ġrains": 8235,
      "Ġcurious": 8236,
      "Ġ52": 8237,
      "Ġprovider": 8238,
      "Ġinstruction": 8239,
      "Ġ64": 8240,
      "Ġvaluable": 8241,
      "Ġsigning": 8242,
      "Ġdiscover": 8243,
      "teenth": 8244,
      "Ġswallow": 8245,
      "Ġorganize": 8246,
      "Ġdevoured": 8247,
      "Ġinterpre": 8248,
      "Ġpostal": 8249,
      "Ġcompetit": 8250,
      "Ġoccurrence": 8251,
      "Ġelectrical": 8252,
      "Ġsacrificed": 8253,
      "Ġwitnessed": 8254,
      "Ġmaxim": 8255,
      "Ġfeedback": 8256,
      "Ġstocks": 8257,
      "Ġcorporations": 8258,
      "Ġcursed": 8259,
      "Ġcriticism": 8260,
      "Ġmourn": 8261,
      "Ġmemorial": 8262,
      "Ġacadem": 8263,
      "Ġtherapy": 8264,
      "Ġcottage": 8265,
      "germ": 8266,
      "gdp": 8267,
      "mill": 8268,
      "mish": 8269,
      "py": 8270,
      "pent": 8271,
      "pakistan": 8272,
      "turn": 8273,
      "Ġboring": 8274,
      "aniah": 8275,
      "lehem": 8276,
      "Ġstability": 8277,
      "Ġiphone": 8278,
      "sole": 8279,
      "rif": 8280,
      "Ġsemin": 8281,
      "Ġdock": 8282,
      "ainted": 8283,
      "osystem": 8284,
      "Ġintensive": 8285,
      "Ġliked": 8286,
      "Ġdismay": 8287,
      "Ġsomewhat": 8288,
      "Ġpossibly": 8289,
      "Ġcrew": 8290,
      "Ġpurple": 8291,
      "Ġrepent": 8292,
      "Ġsecurities": 8293,
      "Ġpointed": 8294,
      "Ġstays": 8295,
      "Ġinfect": 8296,
      "Ġorganisms": 8297,
      "Ġassault": 8298,
      "idespread": 8299,
      "Ġbirgunj": 8300,
      "Ġusername": 8301,
      "Ġwinners": 8302,
      "Ġbabies": 8303,
      "Ġincreasingly": 8304,
      "france": 8305,
      "bank": 8306,
      "Ġbreaking": 8307,
      "Ġmeaningful": 8308,
      "Ġdeny": 8309,
      "Ġfavour": 8310,
      "Ġcelebrate": 8311,
      "Ġscripts": 8312,
      "Ġduties": 8313,
      "Ġgeor": 8314,
      "Ġengineering": 8315,
      "Ġbulls": 8316,
      "Ġschema": 8317,
      "Ġtreasures": 8318,
      "Ġsurrounding": 8319,
      "Ġsummary": 8320,
      "Ġphotographs": 8321,
      "Ġrecipient": 8322,
      "Ġcandidate": 8323,
      "Ġecosystem": 8324,
      "Ġsustainable": 8325,
      "bit": 8326,
      "bro": 8327,
      "mad": 8328,
      "night": 8329,
      "sis": 8330,
      "sour": 8331,
      "tle": 8332,
      "tains": 8333,
      "Ġtone": 8334,
      "Ġastr": 8335,
      "hael": 8336,
      "itative": 8337,
      "ica": 8338,
      "Ġeager": 8339,
      "Ġreact": 8340,
      "ching": 8341,
      "Ġconcl": 8342,
      "Ġjab": 8343,
      "Ġadam": 8344,
      "Ġindicated": 8345,
      "Ġbollywood": 8346,
      "ailing": 8347,
      "Ġdeser": 8348,
      "actually": 8349,
      "Ġ83": 8350,
      "Ġelephant": 8351,
      "Ġunderstands": 8352,
      "Ġeats": 8353,
      "together": 8354,
      "Ġinterval": 8355,
      "Ġagreements": 8356,
      "Ġreligions": 8357,
      "without": 8358,
      "parency": 8359,
      "server": 8360,
      "Ġsuggestion": 8361,
      "Ġfruitful": 8362,
      "Ġfestiv": 8363,
      "Ġwondering": 8364,
      "Ġsanctify": 8365,
      "Ġexecutable": 8366,
      "Ġslowly": 8367,
      "Ġvertically": 8368,
      "Ġparameter": 8369,
      "Ġentrepreneur": 8370,
      "Ġsikkim": 8371,
      "Ġcrucified": 8372,
      "Ġbicycle": 8373,
      "recently": 8374,
      "Ġastray": 8375,
      "home": 8376,
      "jose": 8377,
      "liness": 8378,
      "public": 8379,
      "Ġtig": 8380,
      "Ġwicket": 8381,
      "Ġfan": 8382,
      "eration": 8383,
      "Ġpush": 8384,
      "esse": 8385,
      "Ġishma": 8386,
      "Ġheed": 8387,
      "Ġhired": 8388,
      "Ġfran": 8389,
      "Ġprosp": 8390,
      "Ġprohib": 8391,
      "Ġthemes": 8392,
      "Ġsuit": 8393,
      "eline": 8394,
      "Ġprote": 8395,
      "Ġbetray": 8396,
      "whatever": 8397,
      "Ġdefiled": 8398,
      "Ġexperiencing": 8399,
      "Ġinsist": 8400,
      "Ġvisibility": 8401,
      "Ġstrings": 8402,
      "Ġsingers": 8403,
      "Ġ189": 8404,
      "Ġannually": 8405,
      "Ġfloating": 8406,
      "Ġ1987": 8407,
      "Ġoppress": 8408,
      "Ġdiscussions": 8409,
      "Ġexplore": 8410,
      "avail": 8411,
      "Ġutility": 8412,
      "Ġhormon": 8413,
      "Ġamounts": 8414,
      "Ġslept": 8415,
      "Ġunivers": 8416,
      "Ġaffecting": 8417,
      "Ġcorners": 8418,
      "Ġadvantages": 8419,
      "Ġchemicals": 8420,
      "Ġbethlehem": 8421,
      "iveness": 8422,
      "Ġinquire": 8423,
      "Ġunemployed": 8424,
      "Ġmacro": 8425,
      "Ġemotional": 8426,
      "Ġabandoned": 8427,
      "Ġconvinced": 8428,
      "cies": 8429,
      "jun": 8430,
      "pm": 8431,
      "tp": 8432,
      "Ġain": 8433,
      "includ": 8434,
      "Ġwidespread": 8435,
      "Ġmordecai": 8436,
      "Ġpitch": 8437,
      "arr": 8438,
      "Ġgan": 8439,
      "ald": 8440,
      "along": 8441,
      "entially": 8442,
      "eties": 8443,
      "adok": 8444,
      "ila": 8445,
      "Ġmankind": 8446,
      "Ġindicate": 8447,
      "Ġimpart": 8448,
      "Ġclin": 8449,
      "aret": 8450,
      "Ġcurric": 8451,
      "Ġattraction": 8452,
      "Ġregulations": 8453,
      "Ġthinks": 8454,
      "Ġformulation": 8455,
      "Ġinstances": 8456,
      "Ġguilt": 8457,
      "Ġbigger": 8458,
      "Ġinvestments": 8459,
      "harat": 8460,
      "Ġesther": 8461,
      "Ġ1986": 8462,
      "Ġmoral": 8463,
      "Ġlegacy": 8464,
      "Ġviolent": 8465,
      "Ġpopularity": 8466,
      "Ġ1974": 8467,
      "writing": 8468,
      "Ġswear": 8469,
      "Ġsweets": 8470,
      "Ġaimed": 8471,
      "Ġconversion": 8472,
      "Ġpenal": 8473,
      "Ġbrightness": 8474,
      "Ġpartnership": 8475,
      "Ġlaboratory": 8476,
      "Ġninth": 8477,
      "Ġinvolvement": 8478,
      "Ġcontrary": 8479,
      "Ġconstitu": 8480,
      "Ġaccurate": 8481,
      "course": 8482,
      "Ġtoilet": 8483,
      "Ġayurved": 8484,
      "31": 8485,
      "<<": 8486,
      ">>": 8487,
      "bas": 8488,
      "based": 8489,
      "fa": 8490,
      "nab": 8491,
      "sk": 8492,
      "Ġsang": 8493,
      "itpur": 8494,
      "Ġmah": 8495,
      "eness": 8496,
      "Ġinsect": 8497,
      "Ġlions": 8498,
      "Ġrely": 8499,
      "Ġhiv": 8500,
      "Ġweary": 8501,
      "stream": 8502,
      "cell": 8503,
      "Ġthorn": 8504,
      "Ġuae": 8505,
      "Ġ1000": 8506,
      "aka": 8507,
      "agon": 8508,
      "Ġdish": 8509,
      "Ġherds": 8510,
      "Ġ190": 8511,
      "Ġbelg": 8512,
      "Ġrecall": 8513,
      "Ġrecording": 8514,
      "Ġ87": 8515,
      "Ġfewer": 8516,
      "Ġ76": 8517,
      "Ġwondered": 8518,
      "Ġtransparency": 8519,
      "Ġmetal": 8520,
      "Ġsupports": 8521,
      "Ġparable": 8522,
      "Ġprocessed": 8523,
      "Ġinfant": 8524,
      "Ġhumble": 8525,
      "Ġtrib": 8526,
      "Ġprompt": 8527,
      "Ġadvoc": 8528,
      "Ġmultitudes": 8529,
      "Ġfears": 8530,
      "Ġdirectors": 8531,
      "Ġacceptable": 8532,
      "Ġincidents": 8533,
      "Ġexpressions": 8534,
      "Ġcolleagues": 8535,
      "Ġspreading": 8536,
      "Ġsleeping": 8537,
      "liminary": 8538,
      "Ġfortun": 8539,
      "Ġfortified": 8540,
      "Ġtissues": 8541,
      "Ġtonight": 8542,
      "Ġunemployment": 8543,
      "Ġgallery": 8544,
      "Ġfierce": 8545,
      "Ġenterprises": 8546,
      "Ġterritory": 8547,
      "Ġslightly": 8548,
      "Ġishmael": 8549,
      "36": 8550,
      "38": 8551,
      "city": 8552,
      "card": 8553,
      "kathmandu": 8554,
      "pah": 8555,
      "tion": 8556,
      "win": 8557,
      "Ġtall": 8558,
      "inals": 8559,
      "reel": 8560,
      "isaiah": 8561,
      "Ġfaint": 8562,
      "aned": 8563,
      "aliah": 8564,
      "Ġwasted": 8565,
      "Ġstad": 8566,
      "Ġseized": 8567,
      "Ġworries": 8568,
      "Ġjack": 8569,
      "Ġrou": 8570,
      "Ġrub": 8571,
      "osis": 8572,
      "oser": 8573,
      "Ġlegs": 8574,
      "Ġshake": 8575,
      "Ġshil": 8576,
      "Ġcompuls": 8577,
      "cience": 8578,
      "Ġindians": 8579,
      "ignore": 8580,
      "ounds": 8581,
      "Ġaccus": 8582,
      "Ġdecree": 8583,
      "Ġrabb": 8584,
      "Ġproduces": 8585,
      "Ġcriter": 8586,
      "Ġbashan": 8587,
      "dev": 8588,
      "Ġprivat": 8589,
      "Ġprivile": 8590,
      "Ġdivisions": 8591,
      "Ġoppressed": 8592,
      "Ġbadly": 8593,
      "Ġtouches": 8594,
      "married": 8595,
      "scale": 8596,
      "Ġcopied": 8597,
      "Ġlawyers": 8598,
      "regard": 8599,
      "Ġshepherd": 8600,
      "Ġslaughter": 8601,
      "photo": 8602,
      "Ġsatellite": 8603,
      ".>>": 8604,
      "giving": 8605,
      "mem": 8606,
      "size": 8607,
      "vide": 8608,
      "educ": 8609,
      "Ġpsal": 8610,
      "anim": 8611,
      "Ġgene": 8612,
      "ida": 8613,
      "utan": 8614,
      "Ġvoted": 8615,
      "Ġrum": 8616,
      "Ġtimber": 8617,
      "ideon": 8618,
      "Ġdissol": 8619,
      "forest": 8620,
      "Ġrocks": 8621,
      "plus": 8622,
      "pless": 8623,
      "Ġovercome": 8624,
      "Ġlaug": 8625,
      "ports": 8626,
      "Ġplanets": 8627,
      "Ġminim": 8628,
      "Ġdirections": 8629,
      "Ġpursu": 8630,
      "Ġvisual": 8631,
      "Ġencoun": 8632,
      "Ġbury": 8633,
      "Ġtraditions": 8634,
      "Ġequality": 8635,
      "Ġbalaam": 8636,
      "Ġcooperate": 8637,
      "Ġmissed": 8638,
      "polit": 8639,
      "Ġdoubts": 8640,
      "Ġboundary": 8641,
      "Ġrushed": 8642,
      "Ġdrove": 8643,
      "Ġqualities": 8644,
      "black": 8645,
      "Ġmultiplied": 8646,
      "Ġborne": 8647,
      "Ġadequate": 8648,
      "dire": 8649,
      "iver": 8650,
      "sl": 8651,
      "zo": 8652,
      "Ġtack": 8653,
      "help": 8654,
      "inates": 8655,
      "hai": 8656,
      "Ġbin": 8657,
      "Ġboss": 8658,
      "erate": 8659,
      "Ġcore": 8660,
      "Ġcree": 8661,
      "Ġped": 8662,
      "Ġlrb": 8663,
      "Ġreferences": 8664,
      "hore": 8665,
      "Ġdisagree": 8666,
      "Ġindones": 8667,
      "Ġ53": 8668,
      "Ġpossibilities": 8669,
      "Ġbuses": 8670,
      "Ġflame": 8671,
      "Ġblow": 8672,
      "Ġ700": 8673,
      "Ġblocks": 8674,
      "Ġpublicity": 8675,
      "Ġguys": 8676,
      "Ġmeanings": 8677,
      "teacher": 8678,
      "Ġjez": 8679,
      "Ġmemories": 8680,
      "Ġchecking": 8681,
      "Ġshock": 8682,
      "Ġstronghold": 8683,
      "Ġautom": 8684,
      "Ġpayments": 8685,
      "Ġtypically": 8686,
      "Ġprophecy": 8687,
      "surely": 8688,
      "Ġrepresented": 8689,
      "listen": 8690,
      "Ġaims": 8691,
      "Ġsubmit": 8692,
      "Ġfairly": 8693,
      "Ġtamil": 8694,
      "Ġabomination": 8695,
      "Ġinserted": 8696,
      "Ġrebelled": 8697,
      "Ġobligation": 8698,
      "Ġvacation": 8699,
      "Ġvegetables": 8700,
      "Ġtremend": 8701,
      "Ġhelpless": 8702,
      "Ġsweden": 8703,
      "joseph": 8704,
      "Ġlaughed": 8705,
      "45": 8706,
      "hur": 8707,
      "sar": 8708,
      "table": 8709,
      "za": 8710,
      "Ġtors": 8711,
      "Ġwished": 8712,
      "Ġcos": 8713,
      "Ġmu": 8714,
      "Ġgang": 8715,
      "Ġhint": 8716,
      "seven": 8717,
      "uda": 8718,
      "ude": 8719,
      "elines": 8720,
      "Ġupcoming": 8721,
      "Ġenforce": 8722,
      "Ġunlike": 8723,
      "Ġcovers": 8724,
      "rupt": 8725,
      "Ġsinners": 8726,
      "neys": 8727,
      "Ġjustified": 8728,
      "Ġmathe": 8729,
      "Ġhook": 8730,
      "Ġdefile": 8731,
      "Ġpaste": 8732,
      "Ġpoliticians": 8733,
      "ounced": 8734,
      "Ġrefuse": 8735,
      "Ġgrab": 8736,
      "Ġprofitable": 8737,
      "changed": 8738,
      "Ġtraders": 8739,
      "apped": 8740,
      "words": 8741,
      "Ġconduit": 8742,
      "Ġassets": 8743,
      "righteous": 8744,
      "Ġmanagers": 8745,
      "Ġphilip": 8746,
      "Ġconsiderable": 8747,
      "à¥¤": 8748,
      "Ġcircuit": 8749,
      "Ġglobe": 8750,
      "Ġtrumpets": 8751,
      "Ġcrossed": 8752,
      "Ġresidential": 8753,
      "Ġtags": 8754,
      "Ġdesolation": 8755,
      "Ġfigures": 8756,
      "Ġcomplain": 8757,
      "Ġblemish": 8758,
      "Ġintellect": 8759,
      "Ġliberal": 8760,
      "Ġcondemn": 8761,
      "Ġcondemned": 8762,
      "Ġdynamic": 8763,
      "initially": 8764,
      "Ġconcluded": 8765,
      "Ġrestaurant": 8766,
      "Ġdinner": 8767,
      "Ġexplanation": 8768,
      "cred": 8769,
      "mel": 8770,
      "nah": 8771,
      "overy": 8772,
      "watch": 8773,
      "Ġcensus": 8774,
      "Ġital": 8775,
      "ille": 8776,
      "irm": 8777,
      "ithm": 8778,
      "tery": 8779,
      "akpur": 8780,
      "Ġrings": 8781,
      "Ġrang": 8782,
      "Ġspices": 8783,
      "Ġabimelech": 8784,
      "Ġlogo": 8785,
      "young": 8786,
      "Ġscope": 8787,
      "Ġmoreover": 8788,
      "Ġboards": 8789,
      "Ġresur": 8790,
      "arer": 8791,
      "Ġcamels": 8792,
      "Ġemotions": 8793,
      "Ġ800": 8794,
      "Ġsituated": 8795,
      "Ġchennai": 8796,
      "Ġaffection": 8797,
      "Ġdevil": 8798,
      "Ġassured": 8799,
      "Ġdeadly": 8800,
      "Ġsatan": 8801,
      "Ġgiri": 8802,
      "Ġoppon": 8803,
      "Ġphysician": 8804,
      "Ġsamples": 8805,
      "banks": 8806,
      "Ġdigits": 8807,
      "remittances": 8808,
      "Ġsurveys": 8809,
      "Ġcollecting": 8810,
      "Ġbeds": 8811,
      "Ġreviewed": 8812,
      "Ġteenager": 8813,
      "Ġcorresponding": 8814,
      "Ġpreferred": 8815,
      "Ġmutual": 8816,
      "Ġguarantee": 8817,
      "creating": 8818,
      "Ġpestilence": 8819,
      "Ġconsolid": 8820,
      "Ġheadquarters": 8821,
      "Ġfestivals": 8822,
      "clock": 8823,
      "pay": 8824,
      "scient": 8825,
      "ties": 8826,
      "Ġties": 8827,
      "internal": 8828,
      "thetic": 8829,
      "utious": 8830,
      "Ġanc": 8831,
      "Ġthy": 8832,
      "Ġthigh": 8833,
      "Ġdeals": 8834,
      "Ġjesse": 8835,
      "Ġrome": 8836,
      "Ġtimely": 8837,
      "Ġscatter": 8838,
      "Ġupset": 8839,
      "ago": 8840,
      "Ġdismiss": 8841,
      "Ġcontem": 8842,
      "bert": 8843,
      "Ġpointer": 8844,
      "Ġpreliminary": 8845,
      "Ġshoulder": 8846,
      "Ġcarries": 8847,
      "Ġpersu": 8848,
      "Ġformation": 8849,
      "Ġinstantly": 8850,
      "Ġcautious": 8851,
      "Ġfinals": 8852,
      "Ġconstell": 8853,
      "Ġsime": 8854,
      "Ġstrangers": 8855,
      "Ġallowing": 8856,
      "Ġintercourse": 8857,
      "Ġtechnique": 8858,
      "ologies": 8859,
      "Ġlessons": 8860,
      "Ġsharehold": 8861,
      "Ġaccessible": 8862,
      "Ġcleaning": 8863,
      "Ġprayers": 8864,
      "Ġfunding": 8865,
      "Ġaccidents": 8866,
      "Ġsignificantly": 8867,
      "Ġclimb": 8868,
      "Ġconvicted": 8869,
      "Ġhydrop": 8870,
      "Ġuploaded": 8871,
      "Ġtroops": 8872,
      "Ġrapidly": 8873,
      "Ġolive": 8874,
      "Ġengraved": 8875,
      "available": 8876,
      "case": 8877,
      "rit": 8878,
      "vas": 8879,
      "wed": 8880,
      "yed": 8881,
      "Ġtube": 8882,
      "Ġpin": 8883,
      "Ġtob": 8884,
      "especially": 8885,
      "Ġgy": 8886,
      "Ġghost": 8887,
      "Ġrecon": 8888,
      "Ġkam": 8889,
      "Ġselah": 8890,
      "Ġsaver": 8891,
      "ules": 8892,
      "Ġunread": 8893,
      "Ġpoison": 8894,
      "Ġopacity": 8895,
      "anyone": 8896,
      "otherwise": 8897,
      "Ġ57": 8898,
      "Ġ58": 8899,
      "Ġpositions": 8900,
      "Ġattitude": 8901,
      "ornia": 8902,
      "Ġ69": 8903,
      "Ġ77": 8904,
      "Ġ79": 8905,
      "Ġtyre": 8906,
      "Ġdepri": 8907,
      "Ġcorrection": 8908,
      "Ġmusical": 8909,
      "Ġinfl": 8910,
      "cribed": 8911,
      "Ġjehu": 8912,
      "Ġtai": 8913,
      "istration": 8914,
      "Ġdollar": 8915,
      "Ġpetition": 8916,
      "Ġmurm": 8917,
      "shall": 8918,
      "Ġreveal": 8919,
      "Ġencouraging": 8920,
      "Ġobserving": 8921,
      "likewise": 8922,
      "Ġabsor": 8923,
      "Ġverified": 8924,
      "Ġintroduce": 8925,
      "Ġcorporate": 8926,
      "Ġvaccination": 8927,
      "Ġprinciples": 8928,
      "connected": 8929,
      "Ġhabitation": 8930,
      "Ġlamps": 8931,
      "Ġcandidates": 8932,
      "Ġmandatory": 8933,
      "Ġvirtual": 8934,
      "Ġgibeon": 8935,
      "Ġastonished": 8936,
      "Ġdistinct": 8937,
      "Ġwarranty": 8938,
      "Ġbuffer": 8939,
      "Ġwrapped": 8940,
      "Ġdecentral": 8941,
      "Ġacademy": 8942,
      "cop": 8943,
      "dem": 8944,
      "kids": 8945,
      "san": 8946,
      "Ġak": 8947,
      "inos": 8948,
      "inions": 8949,
      "Ġoh": 8950,
      "Ġni": 8951,
      "Ġbears": 8952,
      "Ġell": 8953,
      "Ġreno": 8954,
      "step": 8955,
      "Ġstumb": 8956,
      "thon": 8957,
      "akers": 8958,
      "Ġmanual": 8959,
      "ordinary": 8960,
      "Ġcovid": 8961,
      "Ġsheol": 8962,
      "Ġcarbon": 8963,
      "Ġdefence": 8964,
      "Ġtransaction": 8965,
      "Ġzadok": 8966,
      "Ġchoices": 8967,
      "Ġbases": 8968,
      "Ġpainted": 8969,
      "Ġpromin": 8970,
      "Ġspirits": 8971,
      "Ġlargely": 8972,
      "Ġveil": 8973,
      "Ġcooking": 8974,
      "Ġarrives": 8975,
      "Ġdeceived": 8976,
      "Ġspecifically": 8977,
      "Ġranked": 8978,
      "Ġfloods": 8979,
      "Ġsteal": 8980,
      "Ġfatal": 8981,
      "ieth": 8982,
      "seeing": 8983,
      "Ġoxen": 8984,
      "Ġdespised": 8985,
      "Ġplatforms": 8986,
      "Ġgraphics": 8987,
      "drawn": 8988,
      "Ġwoe": 8989,
      "Ġgeographical": 8990,
      "dhartha": 8991,
      "Ġcleansed": 8992,
      "Ġsodom": 8993,
      "Ġcherubim": 8994,
      "Ġhelicopter": 8995,
      "Ġcriteria": 8996,
      "Ġhydropower": 8997,
      "!'": 8998,
      "arent": 8999,
      "pra": 9000,
      "same": 9001,
      "iny": 9002,
      "Ġbone": 9003,
      "Ġfate": 9004,
      "Ġmb": 9005,
      "Ġtoler": 9006,
      "aning": 9007,
      "Ġlas": 9008,
      "Ġgork": 9009,
      "iram": 9010,
      "Ġwors": 9011,
      "Ġproport": 9012,
      "uli": 9013,
      "Ġplug": 9014,
      "Ġmole": 9015,
      "Ġsockets": 9016,
      "ignment": 9017,
      "Ġpreached": 9018,
      "inte": 9019,
      "Ġchamber": 9020,
      "Ġowns": 9021,
      "Ġfounder": 9022,
      "Ġ66": 9023,
      "Ġhighways": 9024,
      "Ġdeploy": 9025,
      "Ġjudgments": 9026,
      "Ġvaries": 9027,
      "Ġheaders": 9028,
      "Ġprevention": 9029,
      "Ġresulting": 9030,
      "Ġcompanions": 9031,
      "cover": 9032,
      "Ġcutting": 9033,
      "Ġamericans": 9034,
      "Ġseparately": 9035,
      "woe": 9036,
      "Ġassemblies": 9037,
      "Ġarrival": 9038,
      "Ġpotato": 9039,
      "calcul": 9040,
      "Ġdraws": 9041,
      "Ġsadness": 9042,
      "Ġpunjab": 9043,
      "Ġbottle": 9044,
      "Ġneighbour": 9045,
      "Ġepide": 9046,
      "Ġquarant": 9047,
      "Ġpillar": 9048,
      "Ġsprings": 9049,
      "Ġemerged": 9050,
      "Ġhorizontally": 9051,
      "Ġexhibition": 9052,
      "Ġdescend": 9053,
      "Ġcommunications": 9054,
      "Ġshelter": 9055,
      "Ġpsycholog": 9056,
      "retrieving": 9057,
      "ircum": 9058,
      "Ġambassador": 9059,
      "Ġdignity": 9060,
      "Ġdismayed": 9061,
      "Ġsimeon": 9062,
      "dou": 9063,
      "dat": 9064,
      "data": 9065,
      "fast": 9066,
      "font": 9067,
      "kah": 9068,
      "Ġtun": 9069,
      "Ġwrap": 9070,
      "Ġbact": 9071,
      "Ġfre": 9072,
      "Ġmesh": 9073,
      "Ġdow": 9074,
      "ascript": 9075,
      "usive": 9076,
      "Ġasher": 9077,
      "thy": 9078,
[...]
